unsigned char cnn_outputs_temperature_tflite[] = {
  0x1c, 0x00, 0x00, 0x00, 0x54, 0x46, 0x4c, 0x33, 0x14, 0x00, 0x20, 0x00,
  0x1c, 0x00, 0x18, 0x00, 0x14, 0x00, 0x10, 0x00, 0x0c, 0x00, 0x00, 0x00,
  0x08, 0x00, 0x04, 0x00, 0x14, 0x00, 0x00, 0x00, 0x1c, 0x00, 0x00, 0x00,
  0x8c, 0x00, 0x00, 0x00, 0xe4, 0x00, 0x00, 0x00, 0xa4, 0x13, 0x00, 0x00,
  0xb4, 0x13, 0x00, 0x00, 0x34, 0x20, 0x00, 0x00, 0x03, 0x00, 0x00, 0x00,
  0x01, 0x00, 0x00, 0x00, 0x04, 0x00, 0x00, 0x00, 0xe6, 0xea, 0xff, 0xff,
  0x0c, 0x00, 0x00, 0x00, 0x1c, 0x00, 0x00, 0x00, 0x3c, 0x00, 0x00, 0x00,
  0x0f, 0x00, 0x00, 0x00, 0x73, 0x65, 0x72, 0x76, 0x69, 0x6e, 0x67, 0x5f,
  0x64, 0x65, 0x66, 0x61, 0x75, 0x6c, 0x74, 0x00, 0x01, 0x00, 0x00, 0x00,
  0x04, 0x00, 0x00, 0x00, 0x90, 0xff, 0xff, 0xff, 0x12, 0x00, 0x00, 0x00,
  0x04, 0x00, 0x00, 0x00, 0x08, 0x00, 0x00, 0x00, 0x6f, 0x75, 0x74, 0x70,
  0x75, 0x74, 0x5f, 0x30, 0x00, 0x00, 0x00, 0x00, 0x01, 0x00, 0x00, 0x00,
  0x04, 0x00, 0x00, 0x00, 0xe2, 0xec, 0xff, 0xff, 0x04, 0x00, 0x00, 0x00,
  0x0d, 0x00, 0x00, 0x00, 0x69, 0x6e, 0x70, 0x75, 0x74, 0x5f, 0x6c, 0x61,
  0x79, 0x65, 0x72, 0x5f, 0x31, 0x00, 0x00, 0x00, 0x02, 0x00, 0x00, 0x00,
  0x34, 0x00, 0x00, 0x00, 0x04, 0x00, 0x00, 0x00, 0xdc, 0xff, 0xff, 0xff,
  0x15, 0x00, 0x00, 0x00, 0x04, 0x00, 0x00, 0x00, 0x13, 0x00, 0x00, 0x00,
  0x43, 0x4f, 0x4e, 0x56, 0x45, 0x52, 0x53, 0x49, 0x4f, 0x4e, 0x5f, 0x4d,
  0x45, 0x54, 0x41, 0x44, 0x41, 0x54, 0x41, 0x00, 0x08, 0x00, 0x0c, 0x00,
  0x08, 0x00, 0x04, 0x00, 0x08, 0x00, 0x00, 0x00, 0x14, 0x00, 0x00, 0x00,
  0x04, 0x00, 0x00, 0x00, 0x13, 0x00, 0x00, 0x00, 0x6d, 0x69, 0x6e, 0x5f,
  0x72, 0x75, 0x6e, 0x74, 0x69, 0x6d, 0x65, 0x5f, 0x76, 0x65, 0x72, 0x73,
  0x69, 0x6f, 0x6e, 0x00, 0x16, 0x00, 0x00, 0x00, 0xbc, 0x12, 0x00, 0x00,
  0xb4, 0x12, 0x00, 0x00, 0xa0, 0x12, 0x00, 0x00, 0x80, 0x12, 0x00, 0x00,
  0x6c, 0x12, 0x00, 0x00, 0x94, 0x11, 0x00, 0x00, 0x80, 0x11, 0x00, 0x00,
  0x70, 0x10, 0x00, 0x00, 0x54, 0x10, 0x00, 0x00, 0x44, 0x0e, 0x00, 0x00,
  0x6c, 0x0d, 0x00, 0x00, 0xdc, 0x00, 0x00, 0x00, 0xd4, 0x00, 0x00, 0x00,
  0xcc, 0x00, 0x00, 0x00, 0xc4, 0x00, 0x00, 0x00, 0xbc, 0x00, 0x00, 0x00,
  0xb4, 0x00, 0x00, 0x00, 0xac, 0x00, 0x00, 0x00, 0xa4, 0x00, 0x00, 0x00,
  0x9c, 0x00, 0x00, 0x00, 0x7c, 0x00, 0x00, 0x00, 0x04, 0x00, 0x00, 0x00,
  0xb6, 0xed, 0xff, 0xff, 0x04, 0x00, 0x00, 0x00, 0x68, 0x00, 0x00, 0x00,
  0x0c, 0x00, 0x00, 0x00, 0x08, 0x00, 0x0e, 0x00, 0x08, 0x00, 0x04, 0x00,
  0x08, 0x00, 0x00, 0x00, 0x14, 0x00, 0x00, 0x00, 0x30, 0x00, 0x00, 0x00,
  0x00, 0x00, 0x0a, 0x00, 0x0c, 0x00, 0x08, 0x00, 0x00, 0x00, 0x07, 0x00,
  0x0a, 0x00, 0x00, 0x00, 0x00, 0x00, 0x00, 0x01, 0x04, 0x00, 0x00, 0x00,
  0x01, 0x00, 0x00, 0x00, 0xea, 0x03, 0x00, 0x00, 0x0c, 0x00, 0x18, 0x00,
  0x14, 0x00, 0x10, 0x00, 0x0c, 0x00, 0x04, 0x00, 0x0c, 0x00, 0x00, 0x00,
  0x2c, 0x0b, 0x8b, 0x32, 0xcd, 0x6e, 0x31, 0xde, 0x02, 0x00, 0x00, 0x00,
  0x02, 0x00, 0x00, 0x00, 0x04, 0x00, 0x00, 0x00, 0x06, 0x00, 0x00, 0x00,
  0x32, 0x2e, 0x31, 0x38, 0x2e, 0x30, 0x00, 0x00, 0x2a, 0xee, 0xff, 0xff,
  0x04, 0x00, 0x00, 0x00, 0x10, 0x00, 0x00, 0x00, 0x32, 0x2e, 0x31, 0x37,
  0x2e, 0x30, 0x00, 0x00, 0x00, 0x00, 0x00, 0x00, 0x00, 0x00, 0x00, 0x00,
  0xcc, 0xe1, 0xff, 0xff, 0xd0, 0xe1, 0xff, 0xff, 0xd4, 0xe1, 0xff, 0xff,
  0xd8, 0xe1, 0xff, 0xff, 0xdc, 0xe1, 0xff, 0xff, 0xe0, 0xe1, 0xff, 0xff,
  0xe4, 0xe1, 0xff, 0xff, 0xe8, 0xe1, 0xff, 0xff, 0x66, 0xee, 0xff, 0xff,
  0x04, 0x00, 0x00, 0x00, 0x80, 0x0c, 0x00, 0x00, 0xea, 0xf5, 0xf2, 0x47,
  0x6d, 0xf0, 0x9b, 0x01, 0x6b, 0xec, 0x92, 0x20, 0x81, 0x70, 0xd1, 0x9a,
  0x06, 0x8a, 0x00, 0x8c, 0x87, 0x6a, 0xc0, 0xe2, 0xf5, 0xfc, 0x99, 0x0f,
  0xb0, 0x54, 0x61, 0xb8, 0x6b, 0xc9, 0x48, 0xfe, 0x13, 0x70, 0xae, 0x83,
  0x68, 0xe7, 0x59, 0xa1, 0x8c, 0x0c, 0x88, 0x22, 0xfe, 0x05, 0xe9, 0xf1,
  0x66, 0xeb, 0x5d, 0xff, 0x52, 0x0f, 0x05, 0x05, 0x8c, 0xe9, 0x2e, 0x3c,
  0xe7, 0x46, 0xbd, 0xf0, 0xe8, 0x04, 0x19, 0xfc, 0x1f, 0x5a, 0x1e, 0x40,
  0xfb, 0xe6, 0xe5, 0xf5, 0xf1, 0xae, 0x0c, 0xf2, 0x0f, 0xb3, 0xd6, 0x4b,
  0x5b, 0xb8, 0x2e, 0xba, 0x30, 0xd1, 0x0e, 0xdc, 0x34, 0x46, 0xaa, 0xde,
  0x01, 0x14, 0x54, 0x17, 0x93, 0x1b, 0xcb, 0xfc, 0x2e, 0x4c, 0x36, 0xff,
  0x3b, 0x42, 0x20, 0x31, 0xb3, 0xd6, 0x81, 0x43, 0x0d, 0xe8, 0x17, 0xc1,
  0xf3, 0xae, 0x39, 0x2b, 0xf2, 0x08, 0xec, 0xe9, 0xf6, 0xfb, 0x19, 0x0f,
  0x21, 0xc9, 0xf4, 0x10, 0x04, 0xea, 0x33, 0xfa, 0xf6, 0x7f, 0x18, 0xf9,
  0xd9, 0xf8, 0xe7, 0xeb, 0xb2, 0x11, 0x21, 0xf2, 0xfd, 0x07, 0xdf, 0xec,
  0x00, 0x0b, 0x03, 0x0d, 0x13, 0x11, 0xf6, 0xf2, 0x1a, 0x14, 0x1d, 0x18,
  0x17, 0x18, 0x07, 0x21, 0xe8, 0xf6, 0xff, 0x0f, 0x15, 0x13, 0xff, 0x13,
  0x1c, 0x0c, 0x1b, 0xe2, 0xff, 0xfe, 0x04, 0x11, 0x20, 0x27, 0x24, 0x1e,
  0xe2, 0xda, 0xe0, 0xd6, 0x30, 0xdc, 0xe5, 0x2f, 0xeb, 0xe2, 0x57, 0x2f,
  0xe9, 0x7f, 0xec, 0x02, 0xf6, 0x0e, 0xfd, 0x04, 0xc8, 0xd7, 0x36, 0x06,
  0x08, 0x2b, 0x1d, 0x0a, 0x27, 0xf3, 0xd6, 0x28, 0x13, 0xe4, 0xdb, 0xf8,
  0xda, 0x18, 0x0a, 0x10, 0x13, 0x31, 0xf8, 0x38, 0x12, 0xcf, 0xd7, 0x08,
  0x2d, 0x32, 0x02, 0x29, 0xd5, 0x35, 0xd3, 0x06, 0x1d, 0x1d, 0x02, 0x08,
  0xe8, 0x99, 0x5b, 0xbd, 0x6f, 0x54, 0x44, 0x15, 0xc9, 0xe0, 0xc6, 0x40,
  0xf7, 0xdb, 0x85, 0x85, 0xbb, 0xd4, 0x1d, 0xa2, 0x76, 0x42, 0x5c, 0xe3,
  0x10, 0x57, 0xc5, 0x59, 0x0d, 0xba, 0x17, 0x9d, 0x40, 0x1d, 0x2c, 0x24,
  0xf1, 0x40, 0xa8, 0x78, 0x49, 0xb8, 0x5e, 0xa3, 0xcc, 0x84, 0x9a, 0xe9,
  0x65, 0xdf, 0x67, 0x63, 0xf5, 0x81, 0xba, 0xdd, 0xeb, 0x3f, 0x75, 0xef,
  0xa5, 0x83, 0x09, 0x50, 0x1d, 0xd6, 0xd4, 0xfb, 0x0d, 0xeb, 0xfb, 0x1d,
  0xc7, 0xd6, 0x1c, 0xf1, 0x53, 0x1e, 0x3d, 0x35, 0xbd, 0x7f, 0x39, 0xed,
  0xab, 0xf4, 0xd9, 0xe6, 0x92, 0x20, 0x25, 0x55, 0xfe, 0x13, 0x2f, 0x3d,
  0xea, 0xda, 0x01, 0x18, 0x39, 0x4e, 0xfb, 0x05, 0x01, 0xdc, 0xd9, 0x21,
  0xf4, 0x10, 0x16, 0xfe, 0x38, 0x0e, 0xe8, 0x04, 0xfe, 0x37, 0x2a, 0x3c,
  0xff, 0x1d, 0xf8, 0x31, 0xc7, 0x3b, 0xd7, 0xc3, 0x18, 0x8d, 0x90, 0x7e,
  0x2b, 0x92, 0x89, 0x8f, 0x74, 0x07, 0x4b, 0xbb, 0x31, 0x25, 0xf7, 0x23,
  0xa8, 0xe7, 0xb3, 0xc9, 0x94, 0x9f, 0x81, 0x98, 0xf6, 0xea, 0x24, 0xfb,
  0xcb, 0xa8, 0x3b, 0xaa, 0x74, 0x59, 0xfc, 0xc6, 0xb2, 0xa5, 0xcb, 0x2e,
  0x38, 0xdc, 0x63, 0x44, 0xf5, 0x5d, 0xb6, 0x10, 0xba, 0x6c, 0xb9, 0x74,
  0x89, 0x73, 0x97, 0xd2, 0x21, 0xdf, 0x8a, 0xaa, 0x26, 0x5b, 0xb9, 0x4b,
  0x7d, 0x3d, 0xf3, 0x54, 0xdc, 0x3e, 0x00, 0xb9, 0x2e, 0xed, 0x64, 0x64,
  0x7a, 0x47, 0x00, 0x19, 0xaa, 0x0e, 0x58, 0xc5, 0x65, 0xf5, 0xbe, 0xc2,
  0x8f, 0xf0, 0xeb, 0xea, 0x7b, 0xbd, 0x96, 0xc4, 0x26, 0x6b, 0x69, 0x67,
  0xf6, 0x2f, 0x04, 0x86, 0xa1, 0xe0, 0xf2, 0x17, 0x1f, 0x81, 0x2a, 0xd8,
  0x53, 0x36, 0xba, 0xf3, 0x54, 0xf1, 0x13, 0xe2, 0xc7, 0xe7, 0x97, 0x4e,
  0x8d, 0x36, 0x07, 0x45, 0x91, 0xdf, 0xf5, 0x22, 0x4f, 0x8e, 0xb6, 0x72,
  0x67, 0x8f, 0x7c, 0x75, 0x3f, 0x99, 0xa4, 0x95, 0x05, 0x04, 0xf1, 0x08,
  0x7b, 0x49, 0x13, 0x7f, 0x52, 0xda, 0xd3, 0xdb, 0x4b, 0x93, 0x90, 0xe2,
  0xe9, 0xe6, 0x71, 0xef, 0x9b, 0xf1, 0x32, 0x60, 0xd1, 0x85, 0x71, 0x81,
  0x7b, 0xb5, 0xc2, 0x9d, 0x0c, 0xf3, 0xe3, 0x2c, 0x00, 0xa5, 0xaf, 0x5f,
  0xef, 0x5f, 0x91, 0x01, 0x14, 0x89, 0xf4, 0xaa, 0xb9, 0x89, 0xc1, 0x98,
  0x5a, 0x0d, 0xed, 0x05, 0x94, 0x82, 0xb1, 0x56, 0xd1, 0xd8, 0x18, 0x58,
  0x05, 0x68, 0x9a, 0x5f, 0x89, 0x1a, 0x5b, 0xb8, 0x34, 0xed, 0xc6, 0xc7,
  0x81, 0x23, 0xe6, 0xb8, 0x1e, 0xc7, 0x66, 0x8f, 0xe0, 0x3b, 0x14, 0x5c,
  0xe5, 0x07, 0x49, 0x3e, 0x9d, 0xb3, 0x63, 0xd6, 0x47, 0xd4, 0xac, 0x5a,
  0xcb, 0x8b, 0xe9, 0x43, 0xa9, 0xa2, 0x66, 0x47, 0x7e, 0xbd, 0xc5, 0x66,
  0x02, 0x03, 0x08, 0x0e, 0xf0, 0x02, 0x0b, 0x0d, 0x08, 0xde, 0x0b, 0xf0,
  0x04, 0xf1, 0xff, 0xf3, 0x00, 0x7f, 0xf6, 0x03, 0xf6, 0x03, 0x05, 0xfa,
  0xc3, 0x08, 0xfe, 0xf6, 0xe7, 0xf3, 0xf6, 0x0f, 0xf7, 0x0a, 0xfa, 0xf1,
  0xf9, 0x07, 0xf3, 0x03, 0x08, 0xfc, 0x0c, 0x07, 0xfb, 0x0f, 0x04, 0x00,
  0x01, 0x00, 0x0d, 0xf5, 0xf8, 0xf1, 0x03, 0xfa, 0xfb, 0xfb, 0xf8, 0xf1,
  0x00, 0x12, 0x07, 0xfc, 0x0f, 0xed, 0x0e, 0x02, 0xfb, 0x0c, 0xf8, 0x0f,
  0xf3, 0xf0, 0x05, 0x06, 0x09, 0xf8, 0x0a, 0x0f, 0xed, 0x7f, 0xf4, 0xf2,
  0xf0, 0x07, 0x09, 0x01, 0xc8, 0xf1, 0x04, 0x0a, 0xec, 0x0c, 0x03, 0x0e,
  0xf6, 0xf6, 0x08, 0xf2, 0x0e, 0x16, 0x06, 0x0e, 0xfe, 0xf6, 0xfe, 0xfd,
  0x09, 0x0c, 0xfa, 0xf4, 0xf5, 0xf3, 0x05, 0x0c, 0xff, 0x0a, 0x0b, 0x0f,
  0xf4, 0x0b, 0x06, 0xfd, 0x02, 0x15, 0xf8, 0x0a, 0x33, 0xe4, 0xd8, 0xef,
  0xd7, 0x38, 0x39, 0x1a, 0x21, 0xc9, 0xdb, 0x35, 0x4e, 0xfe, 0x52, 0x33,
  0xd9, 0x7f, 0x28, 0x1f, 0xb7, 0x17, 0xe0, 0xd4, 0x98, 0xe8, 0x09, 0x21,
  0xce, 0x2c, 0x0e, 0x34, 0xe4, 0xf4, 0x10, 0xf0, 0x23, 0x43, 0x09, 0xef,
  0x36, 0x0f, 0x18, 0x0c, 0xda, 0x28, 0xd5, 0x23, 0xd3, 0x29, 0xca, 0x1b,
  0x34, 0x39, 0x06, 0x3d, 0xcf, 0xda, 0x27, 0x25, 0x11, 0x08, 0xd6, 0x12,
  0x16, 0xb4, 0x53, 0x7f, 0x1d, 0x91, 0x7e, 0x73, 0x39, 0xf5, 0xde, 0x71,
  0xd2, 0x21, 0x30, 0xbd, 0x2c, 0x1e, 0x6b, 0x37, 0x97, 0xd7, 0xc7, 0xfa,
  0x12, 0x70, 0xb9, 0x9d, 0xa7, 0xca, 0x39, 0x83, 0x72, 0x7d, 0x95, 0xcd,
  0xba, 0xb0, 0x2a, 0xa5, 0xe6, 0x4e, 0xab, 0xd1, 0xc7, 0xde, 0x59, 0x6b,
  0xed, 0x12, 0x45, 0x1c, 0x16, 0x70, 0x76, 0x9e, 0x1a, 0x68, 0xae, 0xf7,
  0x9e, 0xdd, 0x24, 0x9d, 0xb8, 0xef, 0xea, 0x57, 0x82, 0x40, 0x25, 0x01,
  0x3a, 0x56, 0x19, 0xfd, 0x6a, 0x4d, 0xf3, 0x4a, 0xf5, 0xa2, 0x02, 0x0c,
  0xc4, 0x8c, 0xe1, 0x0d, 0x61, 0x22, 0x94, 0x30, 0x43, 0x5e, 0x34, 0xa3,
  0x01, 0xa2, 0xb1, 0x8c, 0x96, 0xb3, 0x75, 0xcf, 0x9e, 0xc7, 0xcc, 0x1c,
  0xa6, 0x39, 0x2e, 0xb4, 0x3f, 0xb0, 0x78, 0x09, 0x99, 0x9c, 0xa7, 0x05,
  0x78, 0xac, 0x81, 0x64, 0xcf, 0x69, 0x9b, 0x09, 0x8e, 0x00, 0x5c, 0x09,
  0x6a, 0x45, 0x16, 0x93, 0x4f, 0x7c, 0xc4, 0x64, 0x6b, 0xce, 0x77, 0x5b,
  0xaf, 0x54, 0xf2, 0x81, 0x4c, 0x93, 0x7d, 0x0d, 0xbe, 0x17, 0xab, 0x5a,
  0xb0, 0x0a, 0x4a, 0x57, 0x05, 0x29, 0x5e, 0x9b, 0xa8, 0x9e, 0x65, 0xbd,
  0xab, 0xaa, 0x2c, 0x7a, 0x93, 0xb8, 0x49, 0xc5, 0x96, 0x5d, 0x8f, 0xd5,
  0xd2, 0x85, 0xd9, 0xa1, 0x0d, 0x0a, 0x71, 0xcf, 0x27, 0xac, 0x81, 0xce,
  0xf3, 0x1d, 0xdf, 0xee, 0xd9, 0x04, 0xf7, 0xec, 0xe8, 0xe9, 0x08, 0xe1,
  0x19, 0xee, 0x3f, 0x20, 0x13, 0x7f, 0x0a, 0x20, 0xcd, 0xf9, 0x1b, 0xf2,
  0xdb, 0x26, 0x2f, 0x00, 0xf6, 0x22, 0x23, 0x2a, 0xdd, 0xea, 0x08, 0x20,
  0xe6, 0xeb, 0x0d, 0xd8, 0x0f, 0x1d, 0x01, 0xd8, 0x18, 0xf3, 0x26, 0x2c,
  0xdd, 0x0a, 0xed, 0x20, 0xe2, 0xf9, 0x37, 0x0a, 0xec, 0x07, 0xfb, 0x23,
  0x28, 0x03, 0xfd, 0xfd, 0xbc, 0xb3, 0xa4, 0xe4, 0x32, 0xb4, 0xab, 0x8c,
  0xf5, 0xc0, 0xc2, 0xeb, 0x6e, 0x30, 0xb8, 0x26, 0xd5, 0x97, 0xf6, 0xb7,
  0x8b, 0x37, 0x47, 0x6e, 0xb8, 0xb0, 0xe0, 0x03, 0x9e, 0x5e, 0x53, 0x41,
  0xf6, 0x7f, 0x73, 0x52, 0xf9, 0xa4, 0xd4, 0x28, 0x96, 0xcd, 0x87, 0xb8,
  0x8b, 0x89, 0x7b, 0x9f, 0x53, 0x6c, 0x18, 0xc3, 0xd1, 0x17, 0xa5, 0x85,
  0xec, 0xa5, 0x9c, 0x57, 0x38, 0xbd, 0xac, 0xdc, 0xc2, 0x5d, 0xd2, 0x85,
  0xc5, 0x1a, 0x3a, 0x4e, 0xbb, 0x05, 0xa7, 0x33, 0x3a, 0x51, 0x5a, 0x97,
  0xe9, 0x63, 0x72, 0xaa, 0xc6, 0xb3, 0x3b, 0xe2, 0x81, 0x17, 0x9c, 0xe4,
  0x62, 0xf3, 0x4d, 0x8a, 0x87, 0x9f, 0xbc, 0x32, 0x81, 0xe8, 0xce, 0x88,
  0xec, 0xdb, 0xcc, 0x46, 0x20, 0xc9, 0xd0, 0x97, 0x20, 0xaa, 0xe3, 0xa3,
  0xe1, 0x2d, 0xe3, 0xf0, 0xfd, 0x39, 0xf7, 0xcd, 0x99, 0xd2, 0x91, 0x8e,
  0x9e, 0xf4, 0xd9, 0xac, 0x12, 0x6a, 0x85, 0x21, 0x2d, 0x1f, 0xb3, 0xec,
  0x9d, 0x90, 0xcf, 0xc6, 0x95, 0x81, 0x2e, 0x17, 0x7b, 0x4d, 0xaf, 0xec,
  0xcf, 0xd4, 0x53, 0x36, 0xb5, 0xc0, 0xd2, 0xfb, 0x8b, 0x42, 0x3a, 0x6a,
  0xb8, 0x64, 0xa8, 0xba, 0x8e, 0x19, 0x97, 0xd0, 0x06, 0xa3, 0xcd, 0x3b,
  0x9a, 0xfa, 0x0f, 0xa4, 0x82, 0x97, 0x35, 0x3f, 0x50, 0x02, 0x30, 0x4f,
  0x9a, 0x47, 0xf2, 0xb6, 0xcb, 0x94, 0x9e, 0x7f, 0xf2, 0xb7, 0x4d, 0x22,
  0xc4, 0x59, 0xa5, 0x10, 0x8b, 0xb9, 0x19, 0xbe, 0x1a, 0x0d, 0xe4, 0xa9,
  0x14, 0xc6, 0x06, 0x1e, 0x30, 0x95, 0x83, 0x4b, 0xb6, 0x39, 0x6e, 0xc0,
  0x33, 0xb8, 0x43, 0x53, 0xdb, 0x6e, 0x7f, 0x8e, 0x5f, 0xb5, 0x1d, 0x8f,
  0x83, 0x8d, 0x41, 0x06, 0x64, 0x79, 0xc3, 0x25, 0xd4, 0xbe, 0x3b, 0xef,
  0xba, 0xb5, 0xf0, 0x95, 0x9f, 0x4a, 0x0d, 0x54, 0x29, 0x06, 0x29, 0xf5,
  0xe3, 0xfa, 0x0a, 0x1a, 0x08, 0xc6, 0xe8, 0x13, 0x29, 0xe9, 0x03, 0x2b,
  0x06, 0x68, 0x20, 0xfb, 0x02, 0x0a, 0x16, 0x28, 0x81, 0x04, 0x0a, 0x1c,
  0x1c, 0x2b, 0xd4, 0x02, 0x29, 0xf2, 0xf2, 0x14, 0xd9, 0x25, 0xe5, 0x0b,
  0x0d, 0x0d, 0xfd, 0xd3, 0xf1, 0x0c, 0x2e, 0xfc, 0x1d, 0xf5, 0xe2, 0x20,
  0xe5, 0x16, 0xff, 0x2e, 0xeb, 0x22, 0xd2, 0xf1, 0x23, 0x2b, 0x26, 0xdf,
  0x01, 0xff, 0x0e, 0xfa, 0xfd, 0x1d, 0x00, 0x1b, 0x22, 0xd5, 0x0b, 0xfc,
  0xf9, 0xec, 0x3e, 0x2d, 0xed, 0x7f, 0xde, 0xff, 0xfc, 0xd5, 0x0c, 0xd8,
  0xa8, 0x2d, 0xef, 0x06, 0xcc, 0x0a, 0x08, 0x23, 0x0d, 0xf5, 0xf6, 0x17,
  0xd6, 0x10, 0x14, 0x2a, 0x2d, 0xe9, 0xec, 0x0e, 0xf5, 0x02, 0xf8, 0x0f,
  0xfa, 0x20, 0xf6, 0x2d, 0x28, 0xd6, 0x2d, 0xeb, 0xe6, 0x11, 0x13, 0x14,
  0xd7, 0xf8, 0x17, 0x1d, 0xbe, 0x0b, 0xb5, 0xfb, 0x48, 0x44, 0x48, 0xd8,
  0x02, 0xe9, 0x5d, 0xf6, 0x4c, 0x4b, 0xaf, 0x05, 0x13, 0x05, 0x28, 0xdb,
  0x63, 0x31, 0x89, 0xc2, 0x66, 0x82, 0x74, 0xee, 0xe2, 0x28, 0xa2, 0x43,
  0x52, 0xf5, 0x9c, 0xb2, 0xad, 0xac, 0xf5, 0x32, 0x6e, 0xb9, 0xa3, 0x7f,
  0x99, 0xfe, 0x5a, 0xb1, 0xfe, 0xfd, 0xf9, 0x7c, 0x63, 0x5c, 0x13, 0x05,
  0xb7, 0xdf, 0x5b, 0xf3, 0x0a, 0xf4, 0x2b, 0x5c, 0x6a, 0x2f, 0xe8, 0x90,
  0x43, 0x97, 0x56, 0xac, 0x3b, 0x40, 0x83, 0x5b, 0x65, 0x4d, 0xbd, 0xca,
  0x48, 0x96, 0xc1, 0x16, 0xaa, 0xbc, 0x0b, 0x24, 0x81, 0x11, 0xe4, 0x99,
  0x5d, 0x08, 0x71, 0x11, 0xca, 0xc8, 0x86, 0x6a, 0xbb, 0xe3, 0x91, 0xa4,
  0x51, 0x6d, 0x02, 0x28, 0x01, 0x16, 0xd8, 0xc4, 0xa6, 0xb8, 0x19, 0xb2,
  0x36, 0x3c, 0xbb, 0x0e, 0x49, 0x3d, 0x02, 0xec, 0x7b, 0x90, 0xdf, 0x0d,
  0x42, 0x9e, 0xb3, 0x3b, 0x27, 0x5e, 0x05, 0x05, 0x62, 0x74, 0x0d, 0x3b,
  0x22, 0xe5, 0x40, 0x7b, 0x31, 0x75, 0x09, 0xff, 0xec, 0x06, 0xed, 0xb3,
  0x24, 0x79, 0x2f, 0x2e, 0x81, 0xa4, 0x3c, 0xa7, 0xc4, 0x66, 0x90, 0x94,
  0x27, 0xd1, 0xd5, 0x09, 0x2b, 0x7e, 0x2e, 0x2f, 0x94, 0x95, 0xd6, 0xef,
  0x31, 0x31, 0xc1, 0x81, 0x81, 0xd2, 0x87, 0xa9, 0x62, 0x73, 0x60, 0xd4,
  0x37, 0xda, 0xf7, 0x15, 0xfc, 0x04, 0x0d, 0x0f, 0xef, 0x0b, 0x0b, 0x14,
  0x11, 0xfc, 0x00, 0x09, 0xf8, 0x0e, 0x14, 0x0f, 0xf8, 0x7f, 0x03, 0x0e,
  0xdf, 0x07, 0xf9, 0x09, 0xc5, 0xfb, 0x15, 0x05, 0x06, 0xee, 0xf3, 0x01,
  0xfa, 0xef, 0x0f, 0xf8, 0x09, 0x17, 0x05, 0x09, 0x08, 0xed, 0x0c, 0xed,
  0x12, 0xfa, 0x15, 0x04, 0x12, 0x01, 0x0f, 0x11, 0xef, 0xf8, 0x15, 0xf8,
  0x08, 0xfa, 0x10, 0x12, 0x01, 0xfb, 0xfe, 0x0b, 0x05, 0xfa, 0xd7, 0xef,
  0x16, 0x32, 0xde, 0xf3, 0x3b, 0xe3, 0x02, 0x2e, 0x3a, 0xf6, 0x52, 0xf3,
  0xde, 0x68, 0xca, 0xee, 0xc5, 0xe0, 0xe6, 0xef, 0x81, 0x22, 0x1b, 0x1b,
  0x08, 0x2d, 0x12, 0x26, 0x1a, 0xf2, 0xeb, 0xff, 0x25, 0x2b, 0xf9, 0x01,
  0xf9, 0xf1, 0xe5, 0xc9, 0xf3, 0x19, 0xeb, 0x2c, 0xe1, 0x23, 0x14, 0x02,
  0xf0, 0xec, 0x1f, 0x31, 0x2f, 0x3a, 0xda, 0x23, 0x2a, 0xfc, 0xf5, 0xdf,
  0x99, 0x7f, 0x54, 0xe2, 0xb4, 0xe3, 0xab, 0xad, 0x33, 0x60, 0xb9, 0x70,
  0x4b, 0x4f, 0xb6, 0x76, 0xb9, 0x21, 0xd1, 0xa0, 0x9a, 0xa8, 0x70, 0x2e,
  0xe7, 0x99, 0x30, 0x06, 0x0d, 0x6d, 0x96, 0x52, 0x76, 0x67, 0x88, 0x88,
  0x4b, 0x49, 0x5f, 0x9f, 0x85, 0xad, 0x16, 0x95, 0xa0, 0x92, 0xe9, 0x59,
  0x78, 0xc1, 0xfc, 0x58, 0x16, 0x2e, 0xe3, 0x08, 0xaa, 0x36, 0x65, 0x72,
  0x9a, 0x36, 0x6a, 0xe4, 0x35, 0xff, 0x10, 0x0f, 0x18, 0xdb, 0xce, 0xe0,
  0xe4, 0xde, 0xe7, 0xc7, 0x4d, 0xed, 0x14, 0xd2, 0x01, 0x68, 0x3a, 0x1b,
  0xc8, 0xea, 0xce, 0xce, 0x81, 0xe2, 0xdb, 0x35, 0xf9, 0xce, 0x25, 0x31,
  0xe5, 0x2b, 0x1d, 0xf5, 0x31, 0x0a, 0x2a, 0x26, 0xda, 0x25, 0x30, 0x19,
  0xdb, 0x2d, 0x3d, 0x20, 0xfa, 0xfe, 0x26, 0x2a, 0x29, 0xf3, 0x4c, 0x16,
  0x2b, 0x46, 0xf9, 0x22, 0x3a, 0x31, 0xe2, 0xc9, 0xa8, 0xb9, 0x87, 0xc7,
  0x3a, 0x25, 0xaa, 0x9b, 0x0b, 0xa7, 0xad, 0x25, 0xbd, 0x2d, 0xb5, 0x29,
  0x50, 0xe1, 0xd2, 0xd7, 0xdb, 0x07, 0x4e, 0x38, 0xe1, 0x25, 0x62, 0x67,
  0xba, 0xe7, 0xbb, 0x8e, 0xe8, 0x41, 0x44, 0x05, 0xc6, 0xa2, 0x5b, 0x38,
  0x1d, 0x35, 0x8e, 0x09, 0x81, 0xef, 0xc2, 0xd5, 0xe2, 0xef, 0x5f, 0x24,
  0x7d, 0xe7, 0x79, 0xe9, 0xa5, 0x64, 0x69, 0xb9, 0xe2, 0xd7, 0x65, 0x7f,
  0xd1, 0xd9, 0xc4, 0x9b, 0xd8, 0x6b, 0x24, 0x07, 0x82, 0xfc, 0xd7, 0xaf,
  0xc3, 0xcb, 0x9c, 0x97, 0x49, 0x06, 0x78, 0x9e, 0x11, 0x77, 0x69, 0x47,
  0x8b, 0x56, 0x8f, 0x8a, 0x9b, 0x92, 0x3d, 0x7c, 0x81, 0xf1, 0x6b, 0x58,
  0x22, 0x84, 0x2e, 0x8e, 0xe1, 0x37, 0xa0, 0x3e, 0xa0, 0x60, 0x95, 0x18,
  0x22, 0x89, 0x4b, 0xbf, 0xac, 0xf0, 0xc9, 0xe2, 0x98, 0x55, 0xc9, 0xa2,
  0x3d, 0xeb, 0x4d, 0x0f, 0x25, 0x01, 0xff, 0xe8, 0xa8, 0xad, 0xaa, 0xbb,
  0xff, 0xf0, 0x40, 0x12, 0xfd, 0x2f, 0xcf, 0xc3, 0xb9, 0xc4, 0x69, 0xa3,
  0xfc, 0x29, 0xc1, 0x51, 0x3b, 0x8b, 0x82, 0x4a, 0xb2, 0x92, 0x34, 0x9c,
  0x91, 0xb0, 0x36, 0x65, 0xce, 0x86, 0xf9, 0x19, 0xa8, 0x18, 0xcb, 0x06,
  0x11, 0x43, 0x17, 0x3a, 0xe7, 0x94, 0x2b, 0x2a, 0xcb, 0x4c, 0x5d, 0xef,
  0x3d, 0x56, 0x81, 0xd1, 0xb5, 0x99, 0x41, 0x14, 0x08, 0xb9, 0xb5, 0xad,
  0xbb, 0xe9, 0xab, 0x02, 0x0d, 0x99, 0xdf, 0x60, 0xfb, 0xa1, 0xc8, 0xb1,
  0xf5, 0x5e, 0x84, 0xed, 0x12, 0x96, 0x9b, 0x2d, 0x3e, 0xee, 0xb0, 0x87,
  0x7f, 0xf0, 0x1d, 0x8a, 0xed, 0x03, 0x7e, 0x4b, 0x31, 0x99, 0x76, 0xab,
  0xad, 0xaa, 0x9a, 0x5d, 0x3d, 0x07, 0xf6, 0xf2, 0xb7, 0xe0, 0xed, 0x6e,
  0xf7, 0xc3, 0xb6, 0x10, 0x74, 0xcb, 0x9b, 0x17, 0x61, 0x60, 0x35, 0x73,
  0x0f, 0xf7, 0x16, 0x01, 0x0d, 0xf6, 0x14, 0xf5, 0x02, 0xf5, 0xf6, 0x0b,
  0x24, 0x08, 0x2d, 0xfd, 0xf1, 0x7f, 0x0a, 0x03, 0xdd, 0xf7, 0x07, 0x10,
  0xbe, 0x18, 0xed, 0x10, 0x0c, 0x1c, 0xec, 0xeb, 0xff, 0xf2, 0xf9, 0xf2,
  0xf7, 0x21, 0xed, 0xe8, 0xf7, 0xf2, 0x04, 0xfc, 0x09, 0x15, 0x1c, 0x0a,
  0xea, 0xec, 0x03, 0xee, 0xfd, 0x06, 0x28, 0xf8, 0x1b, 0x1c, 0x00, 0x11,
  0xe8, 0xf7, 0xe8, 0xff, 0xfe, 0xde, 0x15, 0xf7, 0xfa, 0xd8, 0x19, 0x29,
  0x27, 0x07, 0x06, 0x14, 0xdc, 0x0b, 0xfb, 0x0a, 0xf0, 0x8d, 0x27, 0x1e,
  0x24, 0x2a, 0x1e, 0x0e, 0x7f, 0xed, 0x16, 0xd6, 0x3d, 0x20, 0x29, 0x0a,
  0x0d, 0xfe, 0xcd, 0xfc, 0xef, 0x1a, 0xe6, 0x2c, 0xfc, 0xfc, 0xd3, 0xf1,
  0x15, 0xef, 0xe9, 0x23, 0x04, 0x21, 0xee, 0xcb, 0x2d, 0x34, 0xff, 0xf5,
  0x32, 0x16, 0x21, 0xca, 0xf3, 0xfd, 0x2b, 0xea, 0xe2, 0xfe, 0xf4, 0xb8,
  0x3c, 0x8d, 0xce, 0x98, 0x82, 0x3f, 0x23, 0x00, 0xf6, 0x03, 0xac, 0xd4,
  0xe8, 0x3b, 0xc4, 0x12, 0xab, 0xcc, 0x01, 0xc7, 0xa3, 0x9c, 0xe8, 0xdb,
  0xba, 0x00, 0xde, 0x00, 0x44, 0x06, 0xc7, 0x10, 0x2e, 0xb5, 0x6b, 0x7f,
  0xd5, 0x89, 0x28, 0x40, 0xa1, 0xb5, 0x70, 0x31, 0xdd, 0x55, 0xbf, 0x37,
  0x22, 0x40, 0x4d, 0x98, 0x5d, 0xcd, 0xc9, 0x9b, 0x65, 0xd0, 0x8f, 0x47,
  0x12, 0xfc, 0x3e, 0x29, 0x2e, 0xa4, 0x47, 0x76, 0xd2, 0x87, 0x54, 0xb1,
  0x6b, 0x6f, 0x3e, 0xb7, 0xa7, 0x8c, 0xff, 0x68, 0xbe, 0xdb, 0xf7, 0x18,
  0x6e, 0x5e, 0xed, 0x89, 0x12, 0x9e, 0x6b, 0x4e, 0xd1, 0x4f, 0xa5, 0xac,
  0x1c, 0xe1, 0xcb, 0x27, 0xb3, 0x3c, 0x8f, 0x9a, 0xdf, 0x1f, 0x81, 0x83,
  0x0e, 0x51, 0xc7, 0x9e, 0xac, 0xb1, 0x8e, 0x4a, 0x53, 0x3c, 0x31, 0xb4,
  0x05, 0x7e, 0xcb, 0xd2, 0xf7, 0xf9, 0x16, 0xf7, 0xf9, 0x04, 0x25, 0x25,
  0xf8, 0xf2, 0xe1, 0xdf, 0xff, 0x07, 0x1a, 0x25, 0xf2, 0x7f, 0x1f, 0xf6,
  0xeb, 0x1c, 0x03, 0x23, 0xdb, 0xec, 0xea, 0x1f, 0x17, 0xfe, 0xe8, 0x07,
  0x11, 0x13, 0x0e, 0x0c, 0x03, 0x2f, 0xee, 0x1c, 0xef, 0x23, 0xee, 0xf0,
  0xf1, 0xff, 0x23, 0x0f, 0x0f, 0x18, 0x19, 0x0c, 0x07, 0x1f, 0xfa, 0xf2,
  0x23, 0xf6, 0x10, 0x21, 0x1a, 0xfa, 0xdc, 0xff, 0x93, 0x31, 0xf9, 0x3e,
  0xab, 0x4b, 0xa9, 0xf4, 0x92, 0xcb, 0xb2, 0xb5, 0xac, 0x47, 0x03, 0xe7,
  0xed, 0x04, 0xbe, 0x43, 0xf9, 0x1e, 0xb4, 0x0e, 0x81, 0xcd, 0x8c, 0x4c,
  0xf3, 0xe5, 0x44, 0xdf, 0xe2, 0x8b, 0xfc, 0xe5, 0xf4, 0x6a, 0xdc, 0x15,
  0x62, 0xfa, 0xd3, 0x36, 0xc6, 0xa1, 0xa9, 0x5c, 0xa6, 0x06, 0x96, 0x5e,
  0xab, 0x5e, 0xc0, 0xbd, 0xd3, 0x82, 0x96, 0xf5, 0xba, 0x32, 0x00, 0x45,
  0x71, 0x74, 0xaa, 0x86, 0x08, 0x23, 0x14, 0xad, 0x49, 0xcb, 0x02, 0x57,
  0x6a, 0x60, 0xec, 0x08, 0x96, 0xe3, 0xa7, 0x21, 0xc8, 0x4f, 0x94, 0xca,
  0xce, 0x7d, 0x34, 0x9e, 0x81, 0xb8, 0xc8, 0xfd, 0x6e, 0x52, 0xa8, 0xec,
  0x11, 0x92, 0x84, 0xcf, 0x68, 0xd3, 0xad, 0xb1, 0xf6, 0xa0, 0x57, 0x06,
  0xb5, 0x52, 0x97, 0x40, 0x79, 0x2b, 0xa9, 0x8b, 0xbf, 0xc3, 0x39, 0xbe,
  0x13, 0x8e, 0x1a, 0xde, 0x0e, 0xc2, 0xfe, 0xce, 0x0c, 0x11, 0x11, 0x0f,
  0xf6, 0x98, 0x2e, 0x31, 0x39, 0xce, 0x28, 0xf0, 0xda, 0x7f, 0x10, 0x42,
  0xfb, 0xfe, 0xf3, 0x3d, 0xb3, 0x23, 0xea, 0x44, 0x23, 0x3e, 0xd5, 0x1e,
  0xf0, 0xfc, 0x39, 0x26, 0x1d, 0x2c, 0x2b, 0x38, 0xda, 0xf9, 0xe6, 0x03,
  0x0c, 0x02, 0xd5, 0xc8, 0x0c, 0x01, 0x0a, 0xcb, 0x22, 0xe1, 0x4d, 0xfd,
  0x37, 0x05, 0xda, 0x3a, 0x3b, 0x27, 0x30, 0x37, 0xfc, 0xcb, 0xe9, 0xe6,
  0x0d, 0x58, 0x86, 0xb9, 0x1f, 0x8e, 0x8f, 0xeb, 0x50, 0x48, 0x06, 0xef,
  0x91, 0x84, 0xab, 0x67, 0x8a, 0x22, 0xdc, 0xd1, 0x7f, 0x25, 0x35, 0xb8,
  0x54, 0x49, 0x45, 0x34, 0xbb, 0x32, 0xcd, 0xe8, 0xf5, 0x2a, 0x57, 0x71,
  0x57, 0xe0, 0x4f, 0xfb, 0x2b, 0x92, 0x26, 0x64, 0x1b, 0x3c, 0x93, 0xc4,
  0x2a, 0xf8, 0x2a, 0xb0, 0xaa, 0xeb, 0x94, 0x86, 0x03, 0xf0, 0x96, 0xe4,
  0x34, 0x10, 0x0a, 0x09, 0xf3, 0x11, 0xe6, 0x35, 0xfb, 0xcd, 0xec, 0x1f,
  0x05, 0xed, 0xfb, 0x0c, 0xd0, 0x7f, 0x1a, 0x3a, 0xff, 0x21, 0xcc, 0x13,
  0x96, 0xd4, 0x2c, 0x11, 0x0e, 0xee, 0x1b, 0x28, 0x2b, 0x34, 0x19, 0xd1,
  0xdc, 0x0a, 0x35, 0x25, 0xef, 0x01, 0xe8, 0xfb, 0x2f, 0x07, 0x04, 0xd9,
  0xfe, 0xf3, 0x2c, 0x0f, 0xec, 0xd5, 0x12, 0x2f, 0xf8, 0x1f, 0xcd, 0xf4,
  0xd5, 0xe0, 0xcf, 0x10, 0x14, 0x81, 0xd8, 0x9e, 0x2e, 0x33, 0xc6, 0xa7,
  0xb1, 0x37, 0xa7, 0xf9, 0x91, 0x3d, 0x03, 0xed, 0x32, 0x94, 0x0d, 0x36,
  0xbd, 0xbc, 0x6a, 0x50, 0x35, 0x2f, 0x1e, 0xfa, 0x10, 0x68, 0xd7, 0x02,
  0xc3, 0xdc, 0x93, 0x6d, 0xd2, 0x42, 0x4f, 0x60, 0x63, 0x3f, 0xd4, 0xd6,
  0x47, 0xc6, 0x31, 0x1a, 0x12, 0x06, 0x63, 0x43, 0x44, 0xd8, 0x93, 0x30,
  0xb2, 0x91, 0xca, 0xda, 0x35, 0x17, 0x14, 0xd0, 0x76, 0xbc, 0xcb, 0x14,
  0xe9, 0x71, 0xdb, 0x85, 0x08, 0xcf, 0xa2, 0x7d, 0x03, 0xb9, 0xdd, 0xc6,
  0x81, 0xfd, 0x39, 0x2c, 0x3d, 0xdc, 0xe9, 0xdb, 0x79, 0xc0, 0xfa, 0xbd,
  0xdb, 0xeb, 0xe7, 0xfb, 0xbb, 0x09, 0x11, 0x65, 0xe9, 0x49, 0x86, 0xc9,
  0x01, 0xa4, 0xe2, 0x6f, 0xa2, 0xe6, 0x8f, 0x5d, 0x03, 0xcd, 0x35, 0x58,
  0x27, 0xc3, 0x05, 0x2a, 0x23, 0xa1, 0x86, 0xec, 0xf9, 0x3c, 0x57, 0x3b,
  0x39, 0x48, 0x1e, 0x5e, 0xc9, 0x4a, 0x53, 0xfe, 0xd4, 0x69, 0x85, 0x66,
  0xd5, 0x44, 0x0c, 0xd0, 0x38, 0xb6, 0xe5, 0x8a, 0x44, 0x96, 0x5c, 0x1b,
  0x79, 0xbe, 0x41, 0xe2, 0x53, 0x35, 0x8e, 0x9d, 0x7b, 0x6b, 0xf1, 0x53,
  0x45, 0xe7, 0x19, 0x28, 0x43, 0x47, 0xac, 0x6e, 0x53, 0xc4, 0x73, 0x36,
  0xce, 0xdc, 0xde, 0x53, 0xf4, 0x28, 0x09, 0x6b, 0x01, 0x9a, 0xa9, 0x81,
  0x91, 0xbb, 0x85, 0xd3, 0x8d, 0xe9, 0xf4, 0xd0, 0xb0, 0x68, 0xf9, 0xb6,
  0x8e, 0xed, 0x83, 0x2b, 0x61, 0x35, 0xa9, 0x1f, 0x1c, 0xdb, 0x42, 0x44,
  0x43, 0xcb, 0x14, 0x0a, 0xef, 0x88, 0xf8, 0x7a, 0x14, 0xaa, 0x69, 0xc0,
  0x90, 0xeb, 0x75, 0x17, 0x2c, 0xb4, 0x5e, 0xbe, 0x69, 0x6f, 0x40, 0x9c,
  0xe7, 0xaa, 0xf6, 0x81, 0x09, 0x58, 0xb7, 0x81, 0xeb, 0x74, 0xe9, 0x84,
  0x09, 0x5e, 0xf4, 0x93, 0x11, 0xeb, 0x58, 0x28, 0xf1, 0x0b, 0x43, 0xf5,
  0x89, 0x18, 0xd4, 0x55, 0x60, 0x81, 0x9a, 0xc4, 0x8a, 0xb5, 0xc0, 0xb8,
  0x50, 0xe6, 0x4d, 0x54, 0xff, 0x0e, 0x93, 0x28, 0x17, 0xc2, 0x08, 0x18,
  0x6a, 0xea, 0x77, 0x06, 0x4c, 0x58, 0x84, 0xc5, 0x5a, 0x61, 0x9c, 0xbd,
  0xed, 0x16, 0x2f, 0x61, 0x5d, 0x1f, 0x3d, 0x25, 0x03, 0x91, 0x1e, 0x8b,
  0x2d, 0x94, 0x6c, 0xd5, 0xae, 0xfb, 0x97, 0xda, 0xd9, 0x93, 0xa8, 0x0f,
  0xe2, 0x95, 0xea, 0x95, 0x8e, 0x0d, 0xca, 0x1b, 0x87, 0xb7, 0x5e, 0xee,
  0x40, 0x2c, 0xab, 0x09, 0x33, 0xab, 0x15, 0x05, 0xf8, 0xc1, 0x4c, 0x0e,
  0x83, 0x94, 0x30, 0xbe, 0x11, 0xfe, 0xa6, 0x1c, 0x5d, 0xd2, 0x4a, 0x97,
  0x94, 0x99, 0x52, 0xe7, 0xd3, 0x48, 0x02, 0x2e, 0xc8, 0xe5, 0x58, 0x0c,
  0x36, 0x8d, 0xb2, 0xef, 0x65, 0x9b, 0xe8, 0x81, 0x67, 0x14, 0xf0, 0x47,
  0x2e, 0x58, 0x57, 0x3f, 0xf2, 0xfa, 0xff, 0xff, 0x04, 0x00, 0x00, 0x00,
  0xc8, 0x00, 0x00, 0x00, 0xe0, 0x5d, 0x9a, 0x3c, 0x9e, 0x80, 0xc4, 0xbe,
  0x5c, 0xb4, 0x15, 0x3e, 0xe8, 0x3f, 0xbe, 0x3e, 0x42, 0x30, 0x92, 0xbe,
  0x5b, 0xe9, 0x87, 0x3e, 0x7a, 0x73, 0x5f, 0x3e, 0x1a, 0x9a, 0xe7, 0xbd,
  0xc2, 0x84, 0x34, 0xbe, 0x2f, 0x6f, 0x2d, 0xbd, 0x27, 0x20, 0xaa, 0x3d,
  0x9f, 0x5e, 0xf7, 0x3d, 0x7a, 0x3c, 0x35, 0x3e, 0x04, 0x70, 0x36, 0xbe,
  0xfa, 0xb6, 0x8a, 0xbe, 0x16, 0x2a, 0x1e, 0xbe, 0x5a, 0x57, 0xa2, 0x3e,
  0xd8, 0x12, 0x43, 0xbe, 0x0e, 0x89, 0x32, 0x3e, 0xf5, 0xc9, 0x80, 0x3e,
  0x3b, 0xdf, 0x9b, 0xbe, 0xa9, 0xde, 0xc6, 0x3e, 0x45, 0x7a, 0x7b, 0x3e,
  0x9a, 0xab, 0x5a, 0xbe, 0x95, 0x0e, 0x2d, 0xbe, 0x8f, 0x0c, 0xa6, 0xbe,
  0xca, 0xa5, 0x71, 0x3d, 0x7a, 0xe4, 0xa9, 0x3e, 0xd2, 0x09, 0x27, 0x3e,
  0x56, 0xe9, 0xa7, 0x3e, 0xc5, 0xda, 0x9d, 0x3e, 0x60, 0x91, 0x61, 0xbe,
  0xa0, 0x2b, 0x4f, 0xbe, 0x64, 0xc0, 0xca, 0xbd, 0x68, 0xbd, 0x03, 0x3e,
  0x07, 0x4f, 0x86, 0xbe, 0x24, 0xe7, 0xc0, 0x3d, 0xa6, 0x71, 0x54, 0x3e,
  0x20, 0x05, 0xa7, 0x3d, 0x72, 0x88, 0x80, 0xbe, 0x32, 0xbc, 0x1d, 0x3e,
  0xae, 0x00, 0x82, 0x3e, 0x58, 0x19, 0x17, 0x3d, 0xc4, 0x86, 0x50, 0x3e,
  0xdb, 0x87, 0x7d, 0xbe, 0xba, 0x1e, 0x5b, 0x3e, 0xf9, 0x77, 0x4a, 0xbe,
  0x52, 0x74, 0x56, 0xbe, 0xfc, 0x82, 0xf6, 0xbd, 0x82, 0x60, 0x0f, 0x3d,
  0xc6, 0xfb, 0xff, 0xff, 0x04, 0x00, 0x00, 0x00, 0x00, 0x02, 0x00, 0x00,
  0x00, 0xdd, 0xf9, 0x3d, 0x6d, 0x41, 0x59, 0x3e, 0x57, 0x57, 0x95, 0x3d,
  0x26, 0x0c, 0x32, 0xbd, 0xbf, 0x48, 0xe3, 0xbd, 0x7e, 0x67, 0x86, 0x3d,
  0xa4, 0x71, 0xe1, 0xbd, 0x40, 0xec, 0xea, 0xbd, 0x80, 0x07, 0xa9, 0xbd,
  0x6c, 0xb8, 0x62, 0x3d, 0x54, 0x2c, 0x39, 0xbe, 0x0d, 0x51, 0x1f, 0x3e,
  0x8d, 0x1b, 0x19, 0xbe, 0x80, 0x47, 0x07, 0x3e, 0x9d, 0xb8, 0x36, 0xbd,
  0x3e, 0x4c, 0x09, 0x3e, 0x03, 0xf4, 0x47, 0x3b, 0x71, 0xc0, 0xa0, 0x3d,
  0x65, 0x2d, 0x57, 0x3e, 0x30, 0xf4, 0x23, 0xbe, 0xac, 0x13, 0x6e, 0x3d,
  0x48, 0x0f, 0xd7, 0xbd, 0xa9, 0xcf, 0x3c, 0xbe, 0x96, 0x35, 0x37, 0xbe,
  0x6c, 0x3b, 0xfa, 0xbd, 0xa6, 0xd7, 0x7c, 0x3e, 0x6c, 0x8f, 0x27, 0x3d,
  0x0c, 0xb7, 0x42, 0xbe, 0x2d, 0xd6, 0x26, 0xbe, 0xd6, 0x01, 0x5f, 0x3e,
  0x79, 0x94, 0xf6, 0x3a, 0xfe, 0x24, 0x7e, 0x3e, 0xf5, 0x62, 0x53, 0x3e,
  0x75, 0x5e, 0xa7, 0xbd, 0xd4, 0x5a, 0x30, 0xbe, 0x71, 0x9d, 0x34, 0x3e,
  0xee, 0x43, 0xf9, 0x3d, 0x3d, 0x8d, 0x17, 0xbe, 0x89, 0x2f, 0xe6, 0x3d,
  0x00, 0x03, 0x61, 0x3e, 0x18, 0x3d, 0x81, 0x3e, 0xd6, 0x35, 0x2b, 0xbe,
  0x5a, 0xd5, 0x95, 0x3d, 0x64, 0x96, 0x9b, 0xbd, 0x74, 0x19, 0x60, 0xbd,
  0x68, 0xcf, 0x50, 0xbe, 0xcb, 0x43, 0x1e, 0xbe, 0x74, 0x84, 0x10, 0xbe,
  0xcc, 0x0e, 0x15, 0x3e, 0xe0, 0xcf, 0x0b, 0xbe, 0x71, 0x4e, 0xe5, 0x3d,
  0xb0, 0x5c, 0xeb, 0x3d, 0xfd, 0xcb, 0x65, 0xbd, 0xb7, 0x72, 0x12, 0x3e,
  0x4f, 0x3e, 0xcc, 0xbd, 0xd7, 0x4c, 0x4d, 0x3e, 0x48, 0x01, 0xd4, 0x3d,
  0xb5, 0xa9, 0x9a, 0xbd, 0xea, 0x41, 0x1e, 0x3c, 0x23, 0xb0, 0xcb, 0x3d,
  0xd0, 0x77, 0x9f, 0xbd, 0x8c, 0xa4, 0x1d, 0xbd, 0x55, 0xfb, 0x9f, 0xbb,
  0xdd, 0xde, 0x80, 0x3e, 0xd5, 0x71, 0x30, 0xbe, 0x53, 0x94, 0xe8, 0xbd,
  0x80, 0x3c, 0xba, 0xbc, 0x48, 0x9f, 0xc1, 0xbd, 0xd3, 0x40, 0x38, 0x3e,
  0x12, 0x7c, 0x39, 0x3e, 0xe0, 0x1d, 0x85, 0xbd, 0x8f, 0xdb, 0x37, 0xbe,
  0x38, 0xf0, 0x3a, 0xbe, 0x36, 0x1c, 0x1e, 0xbe, 0x99, 0x3d, 0xa2, 0xbd,
  0x9c, 0x9b, 0x1a, 0x3e, 0x34, 0xc3, 0x1e, 0x3d, 0x24, 0xf7, 0x63, 0xbd,
  0x8a, 0x6f, 0xc5, 0x3d, 0xa8, 0x68, 0x19, 0xbe, 0x38, 0x5f, 0x80, 0xbd,
  0xb6, 0xbc, 0x87, 0x3d, 0x74, 0xc1, 0x08, 0xbe, 0x06, 0x25, 0x9f, 0xbd,
  0x75, 0x07, 0xd8, 0xbc, 0x2a, 0xf0, 0xb5, 0x3c, 0xe7, 0xdc, 0x04, 0x3e,
  0xa9, 0x74, 0x27, 0xbe, 0x7e, 0x8c, 0x1b, 0xbe, 0x28, 0x7d, 0x07, 0xbe,
  0xf1, 0x76, 0x13, 0x3e, 0xf1, 0x36, 0x86, 0x3e, 0xe6, 0x8f, 0xca, 0x3b,
  0xb5, 0xd9, 0x26, 0x3e, 0x1a, 0xa9, 0xb3, 0x3d, 0x41, 0xfb, 0x64, 0x3e,
  0x86, 0xf1, 0x96, 0x3d, 0x12, 0x3a, 0xcf, 0xbd, 0xaa, 0x64, 0xf3, 0x3d,
  0x5d, 0x25, 0xac, 0xbd, 0xa3, 0x7a, 0x01, 0x3e, 0x90, 0x22, 0x0b, 0x3d,
  0xfe, 0x7d, 0x4d, 0x3b, 0xaf, 0xea, 0xc2, 0x3d, 0xb0, 0x25, 0x23, 0xbe,
  0x28, 0x17, 0xb4, 0x3c, 0xa4, 0x0b, 0x31, 0xbe, 0x72, 0x92, 0x36, 0xbe,
  0xd7, 0xf5, 0x04, 0xbe, 0x58, 0x11, 0x74, 0x3e, 0xa9, 0x1a, 0x21, 0x3e,
  0x40, 0xeb, 0x6c, 0x3e, 0xf0, 0xaa, 0x9b, 0x3c, 0x0e, 0x75, 0x17, 0xbe,
  0x6c, 0xed, 0x74, 0xbd, 0x63, 0xd5, 0x72, 0x3e, 0x82, 0x3b, 0x3c, 0x3e,
  0x0f, 0xf5, 0x16, 0x38, 0x50, 0xef, 0x48, 0xbc, 0x90, 0xa8, 0xa4, 0xbc,
  0xa0, 0xcf, 0xa2, 0xbb, 0xaf, 0x75, 0x35, 0xbe, 0xbf, 0x1a, 0x75, 0xbd,
  0xcf, 0x47, 0xbe, 0x3d, 0x98, 0xd1, 0x24, 0xbd, 0xc0, 0xea, 0x27, 0x3b,
  0xcf, 0xab, 0xfb, 0xbd, 0x00, 0x58, 0xe4, 0xbd, 0xd2, 0xfd, 0xff, 0xff,
  0x04, 0x00, 0x00, 0x00, 0x0c, 0x00, 0x00, 0x00, 0xff, 0xff, 0xff, 0xff,
  0x02, 0x00, 0x00, 0x00, 0x40, 0x00, 0x00, 0x00, 0xea, 0xfd, 0xff, 0xff,
  0x04, 0x00, 0x00, 0x00, 0x00, 0x01, 0x00, 0x00, 0xc1, 0x3f, 0x87, 0xbb,
  0x7e, 0xdc, 0x24, 0xbd, 0x00, 0x00, 0x00, 0x00, 0x00, 0x00, 0x00, 0x00,
  0x00, 0x00, 0x00, 0x00, 0x00, 0x00, 0x00, 0x00, 0xbb, 0x59, 0xb2, 0xbc,
  0xe7, 0xb4, 0x6d, 0xbd, 0xed, 0xdc, 0x43, 0xbd, 0xe1, 0xee, 0xd7, 0xbc,
  0x00, 0x00, 0x00, 0x00, 0x00, 0x00, 0x00, 0x00, 0x33, 0xd2, 0xae, 0x3a,
  0x00, 0x00, 0x00, 0x00, 0xbe, 0x3c, 0x13, 0xbd, 0xb8, 0x93, 0x08, 0xbc,
  0xc0, 0x5a, 0x23, 0xbd, 0xd7, 0x6b, 0x41, 0xbb, 0x00, 0x00, 0x00, 0x00,
  0x48, 0xcd, 0x67, 0xbd, 0x7d, 0xae, 0xb4, 0xba, 0x00, 0x00, 0x00, 0x00,
  0x00, 0x00, 0x00, 0x00, 0x00, 0x00, 0x00, 0x00, 0xf7, 0x97, 0x3e, 0xbc,
  0xc1, 0xbe, 0x86, 0xbc, 0xad, 0x6d, 0x27, 0xbd, 0xdd, 0x91, 0xf1, 0xba,
  0x34, 0x9b, 0xc9, 0xbc, 0x57, 0x81, 0x98, 0xbb, 0x00, 0x00, 0x00, 0x00,
  0x01, 0xa5, 0xf3, 0x3a, 0x00, 0x00, 0x00, 0x00, 0x00, 0x00, 0x00, 0x00,
  0xdc, 0x7a, 0xf1, 0xbb, 0x00, 0x00, 0x00, 0x00, 0x00, 0x00, 0x00, 0x00,
  0xd1, 0xe8, 0x53, 0xbd, 0x00, 0x00, 0x00, 0x00, 0x00, 0x00, 0x00, 0x00,
  0x2d, 0xed, 0x65, 0xbd, 0x00, 0x00, 0x00, 0x00, 0x9a, 0xe3, 0xc7, 0xbc,
  0x00, 0x00, 0x00, 0x00, 0x00, 0x00, 0x00, 0x00, 0x80, 0x8e, 0xe2, 0xb9,
  0x50, 0x78, 0x14, 0xbd, 0xe3, 0xd0, 0x0e, 0xbc, 0x00, 0x00, 0x00, 0x00,
  0x68, 0xbb, 0x8b, 0xbd, 0xc8, 0x8c, 0x82, 0xbd, 0x59, 0x30, 0x3b, 0x3a,
  0x00, 0x00, 0x00, 0x00, 0x00, 0x00, 0x00, 0x00, 0x44, 0xe0, 0xb2, 0x3b,
  0x19, 0xd5, 0x6b, 0x3a, 0x00, 0x00, 0x00, 0x00, 0xc4, 0x73, 0x8f, 0x3a,
  0x16, 0x9b, 0xf0, 0xbc, 0x00, 0x00, 0x00, 0x00, 0x00, 0x00, 0x00, 0x00,
  0x03, 0x79, 0xb3, 0xbb, 0x00, 0x00, 0x00, 0x00, 0x00, 0x00, 0x00, 0x00,
  0xf6, 0xfe, 0xff, 0xff, 0x04, 0x00, 0x00, 0x00, 0x04, 0x00, 0x00, 0x00,
  0x6d, 0xa4, 0x8a, 0x3c, 0x06, 0xff, 0xff, 0xff, 0x04, 0x00, 0x00, 0x00,
  0xc8, 0x00, 0x00, 0x00, 0x00, 0x00, 0x00, 0x00, 0x27, 0x6e, 0x2e, 0xbc,
  0xdb, 0xc3, 0x1a, 0x3c, 0xf3, 0xea, 0x43, 0x3c, 0x00, 0x00, 0x00, 0x00,
  0xc8, 0x95, 0x53, 0x3c, 0x00, 0x00, 0x00, 0x00, 0x00, 0x00, 0x00, 0x00,
  0x00, 0x00, 0x00, 0x00, 0x1d, 0x0a, 0xc4, 0xbc, 0x84, 0xa9, 0x58, 0xbd,
  0xd0, 0xf2, 0x83, 0xbc, 0x25, 0x7c, 0x38, 0x3c, 0x00, 0x00, 0x00, 0x00,
  0x00, 0x00, 0x00, 0x00, 0x00, 0x00, 0x00, 0x00, 0xcd, 0x9e, 0x64, 0x3c,
  0x00, 0x00, 0x00, 0x00, 0x00, 0x00, 0x00, 0x00, 0x00, 0x00, 0x00, 0x00,
  0x00, 0x00, 0x00, 0x00, 0x21, 0x5a, 0x6d, 0x3c, 0xc0, 0xed, 0x52, 0x3c,
  0x00, 0x00, 0x00, 0x00, 0x7f, 0x3b, 0xaf, 0xbc, 0x0f, 0xb3, 0x6f, 0xbc,
  0x07, 0x13, 0x89, 0xbc, 0x4c, 0x41, 0x65, 0x3c, 0x00, 0x00, 0x00, 0x00,
  0xaa, 0x88, 0x65, 0x3c, 0x00, 0x00, 0x00, 0x00, 0x00, 0x00, 0x00, 0x00,
  0xa3, 0xa5, 0x01, 0xbd, 0x00, 0x00, 0x00, 0x00, 0xc8, 0x32, 0x7f, 0x3b,
  0xc0, 0xd6, 0x83, 0xbc, 0x00, 0x00, 0x00, 0x00, 0x00, 0x00, 0x00, 0x00,
  0x5d, 0xff, 0xa6, 0x3b, 0x00, 0x00, 0x00, 0x00, 0x00, 0x00, 0x00, 0x00,
  0x9e, 0xfd, 0xda, 0x3b, 0x00, 0x00, 0x00, 0x00, 0x52, 0x9e, 0x48, 0x3c,
  0xff, 0x73, 0xc5, 0xbc, 0x00, 0x00, 0x00, 0x00, 0x00, 0x00, 0x00, 0x00,
  0x00, 0x00, 0x00, 0x00, 0xd5, 0x57, 0x81, 0xbc, 0x40, 0xf4, 0x01, 0xbd,
  0xda, 0xff, 0xff, 0xff, 0x04, 0x00, 0x00, 0x00, 0x04, 0x00, 0x00, 0x00,
  0x01, 0x00, 0x00, 0x00, 0xea, 0xff, 0xff, 0xff, 0x04, 0x00, 0x00, 0x00,
  0x08, 0x00, 0x00, 0x00, 0xff, 0xff, 0xff, 0xff, 0x40, 0x00, 0x00, 0x00,
  0x00, 0x00, 0x06, 0x00, 0x08, 0x00, 0x04, 0x00, 0x06, 0x00, 0x00, 0x00,
  0x04, 0x00, 0x00, 0x00, 0x04, 0x00, 0x00, 0x00, 0xfd, 0xff, 0xff, 0xff,
  0x9c, 0xf3, 0xff, 0xff, 0xa0, 0xf3, 0xff, 0xff, 0x0f, 0x00, 0x00, 0x00,
  0x4d, 0x4c, 0x49, 0x52, 0x20, 0x43, 0x6f, 0x6e, 0x76, 0x65, 0x72, 0x74,
  0x65, 0x64, 0x2e, 0x00, 0x01, 0x00, 0x00, 0x00, 0x14, 0x00, 0x00, 0x00,
  0x00, 0x00, 0x0e, 0x00, 0x18, 0x00, 0x14, 0x00, 0x10, 0x00, 0x0c, 0x00,
  0x08, 0x00, 0x04, 0x00, 0x0e, 0x00, 0x00, 0x00, 0x14, 0x00, 0x00, 0x00,
  0x1c, 0x00, 0x00, 0x00, 0x20, 0x02, 0x00, 0x00, 0x24, 0x02, 0x00, 0x00,
  0x28, 0x02, 0x00, 0x00, 0x04, 0x00, 0x00, 0x00, 0x6d, 0x61, 0x69, 0x6e,
  0x00, 0x00, 0x00, 0x00, 0x08, 0x00, 0x00, 0x00, 0xd8, 0x01, 0x00, 0x00,
  0x74, 0x01, 0x00, 0x00, 0x3c, 0x01, 0x00, 0x00, 0x00, 0x01, 0x00, 0x00,
  0xac, 0x00, 0x00, 0x00, 0x84, 0x00, 0x00, 0x00, 0x3c, 0x00, 0x00, 0x00,
  0x04, 0x00, 0x00, 0x00, 0xb6, 0xfe, 0xff, 0xff, 0x14, 0x00, 0x00, 0x00,
  0x00, 0x00, 0x00, 0x08, 0x10, 0x00, 0x00, 0x00, 0x14, 0x00, 0x00, 0x00,
  0x04, 0x00, 0x00, 0x00, 0x30, 0xf4, 0xff, 0xff, 0x01, 0x00, 0x00, 0x00,
  0x12, 0x00, 0x00, 0x00, 0x03, 0x00, 0x00, 0x00, 0x11, 0x00, 0x00, 0x00,
  0x09, 0x00, 0x00, 0x00, 0x05, 0x00, 0x00, 0x00, 0xea, 0xfe, 0xff, 0xff,
  0x20, 0x00, 0x00, 0x00, 0x00, 0x00, 0x00, 0x08, 0x20, 0x00, 0x00, 0x00,
  0x24, 0x00, 0x00, 0x00, 0x04, 0x00, 0x00, 0x00, 0x0c, 0x00, 0x08, 0x00,
  0x07, 0x00, 0x00, 0x00, 0x00, 0x00, 0x06, 0x00, 0x0c, 0x00, 0x00, 0x00,
  0x00, 0x00, 0x01, 0x01, 0x01, 0x00, 0x00, 0x00, 0x11, 0x00, 0x00, 0x00,
  0x03, 0x00, 0x00, 0x00, 0x10, 0x00, 0x00, 0x00, 0x0a, 0x00, 0x00, 0x00,
  0x04, 0x00, 0x00, 0x00, 0x5e, 0xff, 0xff, 0xff, 0x0c, 0x00, 0x00, 0x00,
  0x10, 0x00, 0x00, 0x00, 0x02, 0x00, 0x00, 0x00, 0x01, 0x00, 0x00, 0x00,
  0x10, 0x00, 0x00, 0x00, 0x02, 0x00, 0x00, 0x00, 0x0f, 0x00, 0x00, 0x00,
  0x02, 0x00, 0x00, 0x00, 0x52, 0xff, 0xff, 0xff, 0x24, 0x00, 0x00, 0x00,
  0x00, 0x00, 0x00, 0x05, 0x34, 0x00, 0x00, 0x00, 0x38, 0x00, 0x00, 0x00,
  0x03, 0x00, 0x00, 0x00, 0x00, 0x00, 0x0e, 0x00, 0x18, 0x00, 0x17, 0x00,
  0x10, 0x00, 0x0c, 0x00, 0x08, 0x00, 0x04, 0x00, 0x0e, 0x00, 0x00, 0x00,
  0x01, 0x00, 0x00, 0x00, 0x02, 0x00, 0x00, 0x00, 0x01, 0x00, 0x00, 0x00,
  0x02, 0x00, 0x00, 0x00, 0x00, 0x00, 0x00, 0x01, 0x01, 0x00, 0x00, 0x00,
  0x0f, 0x00, 0x00, 0x00, 0x01, 0x00, 0x00, 0x00, 0x0e, 0x00, 0x00, 0x00,
  0x42, 0xff, 0xff, 0xff, 0x10, 0x00, 0x00, 0x00, 0x00, 0x00, 0x00, 0x34,
  0x0c, 0x00, 0x00, 0x00, 0x10, 0x00, 0x00, 0x00, 0x18, 0xf5, 0xff, 0xff,
  0x01, 0x00, 0x00, 0x00, 0x0e, 0x00, 0x00, 0x00, 0x02, 0x00, 0x00, 0x00,
  0x0d, 0x00, 0x00, 0x00, 0x03, 0x00, 0x00, 0x00, 0x00, 0x00, 0x0a, 0x00,
  0x10, 0x00, 0x0c, 0x00, 0x08, 0x00, 0x04, 0x00, 0x0a, 0x00, 0x00, 0x00,
  0x0c, 0x00, 0x00, 0x00, 0x10, 0x00, 0x00, 0x00, 0x02, 0x00, 0x00, 0x00,
  0x01, 0x00, 0x00, 0x00, 0x0d, 0x00, 0x00, 0x00, 0x02, 0x00, 0x00, 0x00,
  0x0c, 0x00, 0x00, 0x00, 0x07, 0x00, 0x00, 0x00, 0x00, 0x00, 0x0e, 0x00,
  0x18, 0x00, 0x14, 0x00, 0x10, 0x00, 0x0c, 0x00, 0x0b, 0x00, 0x04, 0x00,
  0x0e, 0x00, 0x00, 0x00, 0x20, 0x00, 0x00, 0x00, 0x00, 0x00, 0x00, 0x01,
  0x2c, 0x00, 0x00, 0x00, 0x30, 0x00, 0x00, 0x00, 0x01, 0x00, 0x00, 0x00,
  0x0c, 0x00, 0x14, 0x00, 0x13, 0x00, 0x0c, 0x00, 0x08, 0x00, 0x07, 0x00,
  0x0c, 0x00, 0x00, 0x00, 0x00, 0x00, 0x00, 0x01, 0x01, 0x00, 0x00, 0x00,
  0x01, 0x00, 0x00, 0x00, 0x00, 0x00, 0x00, 0x01, 0x01, 0x00, 0x00, 0x00,
  0x0c, 0x00, 0x00, 0x00, 0x03, 0x00, 0x00, 0x00, 0x0b, 0x00, 0x00, 0x00,
  0x08, 0x00, 0x00, 0x00, 0x06, 0x00, 0x00, 0x00, 0x00, 0x00, 0x0e, 0x00,
  0x14, 0x00, 0x00, 0x00, 0x10, 0x00, 0x0c, 0x00, 0x0b, 0x00, 0x04, 0x00,
  0x0e, 0x00, 0x00, 0x00, 0x10, 0x00, 0x00, 0x00, 0x00, 0x00, 0x00, 0x34,
  0x0c, 0x00, 0x00, 0x00, 0x10, 0x00, 0x00, 0x00, 0xe4, 0xf5, 0xff, 0xff,
  0x01, 0x00, 0x00, 0x00, 0x0b, 0x00, 0x00, 0x00, 0x02, 0x00, 0x00, 0x00,
  0x00, 0x00, 0x00, 0x00, 0x01, 0x00, 0x00, 0x00, 0x01, 0x00, 0x00, 0x00,
  0x12, 0x00, 0x00, 0x00, 0x01, 0x00, 0x00, 0x00, 0x00, 0x00, 0x00, 0x00,
  0x13, 0x00, 0x00, 0x00, 0xc4, 0x09, 0x00, 0x00, 0x70, 0x09, 0x00, 0x00,
  0x18, 0x09, 0x00, 0x00, 0xdc, 0x08, 0x00, 0x00, 0xa0, 0x08, 0x00, 0x00,
  0x4c, 0x08, 0x00, 0x00, 0x10, 0x08, 0x00, 0x00, 0xd0, 0x07, 0x00, 0x00,
  0x88, 0x07, 0x00, 0x00, 0x48, 0x07, 0x00, 0x00, 0x8c, 0x04, 0x00, 0x00,
  0x08, 0x04, 0x00, 0x00, 0x20, 0x03, 0x00, 0x00, 0x68, 0x02, 0x00, 0x00,
  0xe0, 0x01, 0x00, 0x00, 0x64, 0x01, 0x00, 0x00, 0x00, 0x01, 0x00, 0x00,
  0x60, 0x00, 0x00, 0x00, 0x04, 0x00, 0x00, 0x00, 0x9e, 0xf6, 0xff, 0xff,
  0x00, 0x00, 0x00, 0x01, 0x14, 0x00, 0x00, 0x00, 0x1c, 0x00, 0x00, 0x00,
  0x1c, 0x00, 0x00, 0x00, 0x13, 0x00, 0x00, 0x00, 0x34, 0x00, 0x00, 0x00,
  0x02, 0x00, 0x00, 0x00, 0xff, 0xff, 0xff, 0xff, 0x01, 0x00, 0x00, 0x00,
  0x84, 0xf6, 0xff, 0xff, 0x1b, 0x00, 0x00, 0x00, 0x53, 0x74, 0x61, 0x74,
  0x65, 0x66, 0x75, 0x6c, 0x50, 0x61, 0x72, 0x74, 0x69, 0x74, 0x69, 0x6f,
  0x6e, 0x65, 0x64, 0x43, 0x61, 0x6c, 0x6c, 0x5f, 0x31, 0x3a, 0x30, 0x00,
  0x02, 0x00, 0x00, 0x00, 0x01, 0x00, 0x00, 0x00, 0x01, 0x00, 0x00, 0x00,
  0xf6, 0xf6, 0xff, 0xff, 0x00, 0x00, 0x00, 0x01, 0x14, 0x00, 0x00, 0x00,
  0x1c, 0x00, 0x00, 0x00, 0x1c, 0x00, 0x00, 0x00, 0x12, 0x00, 0x00, 0x00,
  0x78, 0x00, 0x00, 0x00, 0x02, 0x00, 0x00, 0x00, 0xff, 0xff, 0xff, 0xff,
  0x32, 0x00, 0x00, 0x00, 0xdc, 0xf6, 0xff, 0xff, 0x5e, 0x00, 0x00, 0x00,
  0x73, 0x65, 0x71, 0x75, 0x65, 0x6e, 0x74, 0x69, 0x61, 0x6c, 0x5f, 0x31,
  0x5f, 0x31, 0x2f, 0x64, 0x65, 0x6e, 0x73, 0x65, 0x5f, 0x32, 0x5f, 0x31,
  0x2f, 0x4d, 0x61, 0x74, 0x4d, 0x75, 0x6c, 0x3b, 0x73, 0x65, 0x71, 0x75,
  0x65, 0x6e, 0x74, 0x69, 0x61, 0x6c, 0x5f, 0x31, 0x5f, 0x31, 0x2f, 0x64,
  0x65, 0x6e, 0x73, 0x65, 0x5f, 0x32, 0x5f, 0x31, 0x2f, 0x52, 0x65, 0x6c,
  0x75, 0x3b, 0x73, 0x65, 0x71, 0x75, 0x65, 0x6e, 0x74, 0x69, 0x61, 0x6c,
  0x5f, 0x31, 0x5f, 0x31, 0x2f, 0x64, 0x65, 0x6e, 0x73, 0x65, 0x5f, 0x32,
  0x5f, 0x31, 0x2f, 0x42, 0x69, 0x61, 0x73, 0x41, 0x64, 0x64, 0x00, 0x00,
  0x02, 0x00, 0x00, 0x00, 0x01, 0x00, 0x00, 0x00, 0x32, 0x00, 0x00, 0x00,
  0x92, 0xf7, 0xff, 0xff, 0x00, 0x00, 0x00, 0x01, 0x14, 0x00, 0x00, 0x00,
  0x1c, 0x00, 0x00, 0x00, 0x1c, 0x00, 0x00, 0x00, 0x11, 0x00, 0x00, 0x00,
  0x3c, 0x00, 0x00, 0x00, 0x02, 0x00, 0x00, 0x00, 0xff, 0xff, 0xff, 0xff,
  0x40, 0x00, 0x00, 0x00, 0x78, 0xf7, 0xff, 0xff, 0x22, 0x00, 0x00, 0x00,
  0x73, 0x65, 0x71, 0x75, 0x65, 0x6e, 0x74, 0x69, 0x61, 0x6c, 0x5f, 0x31,
  0x5f, 0x31, 0x2f, 0x66, 0x6c, 0x61, 0x74, 0x74, 0x65, 0x6e, 0x5f, 0x31,
  0x5f, 0x31, 0x2f, 0x52, 0x65, 0x73, 0x68, 0x61, 0x70, 0x65, 0x00, 0x00,
  0x02, 0x00, 0x00, 0x00, 0x01, 0x00, 0x00, 0x00, 0x40, 0x00, 0x00, 0x00,
  0xf2, 0xf7, 0xff, 0xff, 0x00, 0x00, 0x00, 0x01, 0x14, 0x00, 0x00, 0x00,
  0x24, 0x00, 0x00, 0x00, 0x24, 0x00, 0x00, 0x00, 0x10, 0x00, 0x00, 0x00,
  0x4c, 0x00, 0x00, 0x00, 0x04, 0x00, 0x00, 0x00, 0xff, 0xff, 0xff, 0xff,
  0x01, 0x00, 0x00, 0x00, 0x01, 0x00, 0x00, 0x00, 0x40, 0x00, 0x00, 0x00,
  0xe0, 0xf7, 0xff, 0xff, 0x2a, 0x00, 0x00, 0x00, 0x73, 0x65, 0x71, 0x75,
  0x65, 0x6e, 0x74, 0x69, 0x61, 0x6c, 0x5f, 0x31, 0x5f, 0x31, 0x2f, 0x6d,
  0x61, 0x78, 0x5f, 0x70, 0x6f, 0x6f, 0x6c, 0x69, 0x6e, 0x67, 0x31, 0x64,
  0x5f, 0x31, 0x5f, 0x31, 0x2f, 0x4d, 0x61, 0x78, 0x50, 0x6f, 0x6f, 0x6c,
  0x31, 0x64, 0x00, 0x00, 0x04, 0x00, 0x00, 0x00, 0x01, 0x00, 0x00, 0x00,
  0x01, 0x00, 0x00, 0x00, 0x01, 0x00, 0x00, 0x00, 0x40, 0x00, 0x00, 0x00,
  0x6a, 0xf8, 0xff, 0xff, 0x00, 0x00, 0x00, 0x01, 0x14, 0x00, 0x00, 0x00,
  0x24, 0x00, 0x00, 0x00, 0x24, 0x00, 0x00, 0x00, 0x0f, 0x00, 0x00, 0x00,
  0x58, 0x00, 0x00, 0x00, 0x04, 0x00, 0x00, 0x00, 0xff, 0xff, 0xff, 0xff,
  0x01, 0x00, 0x00, 0x00, 0x02, 0x00, 0x00, 0x00, 0x40, 0x00, 0x00, 0x00,
  0x58, 0xf8, 0xff, 0xff, 0x35, 0x00, 0x00, 0x00, 0x73, 0x65, 0x71, 0x75,
  0x65, 0x6e, 0x74, 0x69, 0x61, 0x6c, 0x5f, 0x31, 0x5f, 0x31, 0x2f, 0x6d,
  0x61, 0x78, 0x5f, 0x70, 0x6f, 0x6f, 0x6c, 0x69, 0x6e, 0x67, 0x31, 0x64,
  0x5f, 0x31, 0x5f, 0x31, 0x2f, 0x4d, 0x61, 0x78, 0x50, 0x6f, 0x6f, 0x6c,
  0x31, 0x64, 0x2f, 0x45, 0x78, 0x70, 0x61, 0x6e, 0x64, 0x44, 0x69, 0x6d,
  0x73, 0x00, 0x00, 0x00, 0x04, 0x00, 0x00, 0x00, 0x01, 0x00, 0x00, 0x00,
  0x01, 0x00, 0x00, 0x00, 0x02, 0x00, 0x00, 0x00, 0x40, 0x00, 0x00, 0x00,
  0xee, 0xf8, 0xff, 0xff, 0x00, 0x00, 0x00, 0x01, 0x14, 0x00, 0x00, 0x00,
  0x20, 0x00, 0x00, 0x00, 0x20, 0x00, 0x00, 0x00, 0x0e, 0x00, 0x00, 0x00,
  0x8c, 0x00, 0x00, 0x00, 0x03, 0x00, 0x00, 0x00, 0xff, 0xff, 0xff, 0xff,
  0x02, 0x00, 0x00, 0x00, 0x40, 0x00, 0x00, 0x00, 0xd8, 0xf8, 0xff, 0xff,
  0x6f, 0x00, 0x00, 0x00, 0x73, 0x65, 0x71, 0x75, 0x65, 0x6e, 0x74, 0x69,
  0x61, 0x6c, 0x5f, 0x31, 0x5f, 0x31, 0x2f, 0x63, 0x6f, 0x6e, 0x76, 0x31,
  0x64, 0x5f, 0x31, 0x5f, 0x31, 0x2f, 0x52, 0x65, 0x6c, 0x75, 0x3b, 0x73,
  0x65, 0x71, 0x75, 0x65, 0x6e, 0x74, 0x69, 0x61, 0x6c, 0x5f, 0x31, 0x5f,
  0x31, 0x2f, 0x63, 0x6f, 0x6e, 0x76, 0x31, 0x64, 0x5f, 0x31, 0x5f, 0x31,
  0x2f, 0x42, 0x69, 0x61, 0x73, 0x41, 0x64, 0x64, 0x3b, 0x73, 0x65, 0x71,
  0x75, 0x65, 0x6e, 0x74, 0x69, 0x61, 0x6c, 0x5f, 0x31, 0x5f, 0x31, 0x2f,
  0x63, 0x6f, 0x6e, 0x76, 0x31, 0x64, 0x5f, 0x31, 0x5f, 0x31, 0x2f, 0x63,
  0x6f, 0x6e, 0x76, 0x6f, 0x6c, 0x75, 0x74, 0x69, 0x6f, 0x6e, 0x2f, 0x53,
  0x71, 0x75, 0x65, 0x65, 0x7a, 0x65, 0x3b, 0x00, 0x03, 0x00, 0x00, 0x00,
  0x01, 0x00, 0x00, 0x00, 0x02, 0x00, 0x00, 0x00, 0x40, 0x00, 0x00, 0x00,
  0xa2, 0xf9, 0xff, 0xff, 0x00, 0x00, 0x00, 0x01, 0x14, 0x00, 0x00, 0x00,
  0x24, 0x00, 0x00, 0x00, 0x24, 0x00, 0x00, 0x00, 0x0d, 0x00, 0x00, 0x00,
  0xb8, 0x00, 0x00, 0x00, 0x04, 0x00, 0x00, 0x00, 0xff, 0xff, 0xff, 0xff,
  0x01, 0x00, 0x00, 0x00, 0x02, 0x00, 0x00, 0x00, 0x40, 0x00, 0x00, 0x00,
  0x90, 0xf9, 0xff, 0xff, 0x95, 0x00, 0x00, 0x00, 0x73, 0x65, 0x71, 0x75,
  0x65, 0x6e, 0x74, 0x69, 0x61, 0x6c, 0x5f, 0x31, 0x5f, 0x31, 0x2f, 0x63,
  0x6f, 0x6e, 0x76, 0x31, 0x64, 0x5f, 0x31, 0x5f, 0x31, 0x2f, 0x52, 0x65,
  0x6c, 0x75, 0x3b, 0x73, 0x65, 0x71, 0x75, 0x65, 0x6e, 0x74, 0x69, 0x61,
  0x6c, 0x5f, 0x31, 0x5f, 0x31, 0x2f, 0x63, 0x6f, 0x6e, 0x76, 0x31, 0x64,
  0x5f, 0x31, 0x5f, 0x31, 0x2f, 0x42, 0x69, 0x61, 0x73, 0x41, 0x64, 0x64,
  0x3b, 0x73, 0x65, 0x71, 0x75, 0x65, 0x6e, 0x74, 0x69, 0x61, 0x6c, 0x5f,
  0x31, 0x5f, 0x31, 0x2f, 0x63, 0x6f, 0x6e, 0x76, 0x31, 0x64, 0x5f, 0x31,
  0x5f, 0x31, 0x2f, 0x63, 0x6f, 0x6e, 0x76, 0x6f, 0x6c, 0x75, 0x74, 0x69,
  0x6f, 0x6e, 0x2f, 0x53, 0x71, 0x75, 0x65, 0x65, 0x7a, 0x65, 0x3b, 0x3b,
  0x73, 0x65, 0x71, 0x75, 0x65, 0x6e, 0x74, 0x69, 0x61, 0x6c, 0x5f, 0x31,
  0x5f, 0x31, 0x2f, 0x63, 0x6f, 0x6e, 0x76, 0x31, 0x64, 0x5f, 0x31, 0x5f,
  0x31, 0x2f, 0x63, 0x6f, 0x6e, 0x76, 0x6f, 0x6c, 0x75, 0x74, 0x69, 0x6f,
  0x6e, 0x00, 0x00, 0x00, 0x04, 0x00, 0x00, 0x00, 0x01, 0x00, 0x00, 0x00,
  0x01, 0x00, 0x00, 0x00, 0x02, 0x00, 0x00, 0x00, 0x40, 0x00, 0x00, 0x00,
  0x86, 0xfa, 0xff, 0xff, 0x00, 0x00, 0x00, 0x01, 0x14, 0x00, 0x00, 0x00,
  0x24, 0x00, 0x00, 0x00, 0x24, 0x00, 0x00, 0x00, 0x0c, 0x00, 0x00, 0x00,
  0x54, 0x00, 0x00, 0x00, 0x04, 0x00, 0x00, 0x00, 0xff, 0xff, 0xff, 0xff,
  0x01, 0x00, 0x00, 0x00, 0x03, 0x00, 0x00, 0x00, 0x01, 0x00, 0x00, 0x00,
  0x74, 0xfa, 0xff, 0xff, 0x30, 0x00, 0x00, 0x00, 0x73, 0x65, 0x71, 0x75,
  0x65, 0x6e, 0x74, 0x69, 0x61, 0x6c, 0x5f, 0x31, 0x5f, 0x31, 0x2f, 0x63,
  0x6f, 0x6e, 0x76, 0x31, 0x64, 0x5f, 0x31, 0x5f, 0x31, 0x2f, 0x63, 0x6f,
  0x6e, 0x76, 0x6f, 0x6c, 0x75, 0x74, 0x69, 0x6f, 0x6e, 0x2f, 0x45, 0x78,
  0x70, 0x61, 0x6e, 0x64, 0x44, 0x69, 0x6d, 0x73, 0x00, 0x00, 0x00, 0x00,
  0x04, 0x00, 0x00, 0x00, 0x01, 0x00, 0x00, 0x00, 0x01, 0x00, 0x00, 0x00,
  0x03, 0x00, 0x00, 0x00, 0x01, 0x00, 0x00, 0x00, 0x56, 0xfb, 0xff, 0xff,
  0x00, 0x00, 0x00, 0x01, 0x20, 0x00, 0x00, 0x00, 0x88, 0x02, 0x00, 0x00,
  0x0b, 0x00, 0x00, 0x00, 0x00, 0x00, 0x00, 0x09, 0x94, 0x02, 0x00, 0x00,
  0x0c, 0x00, 0x0c, 0x00, 0x00, 0x00, 0x00, 0x00, 0x08, 0x00, 0x04, 0x00,
  0x0c, 0x00, 0x00, 0x00, 0x08, 0x00, 0x00, 0x00, 0x98, 0x01, 0x00, 0x00,
  0x32, 0x00, 0x00, 0x00, 0x00, 0x00, 0x00, 0x00, 0x00, 0x00, 0x00, 0x00,
  0x00, 0x00, 0x00, 0x00, 0x00, 0x00, 0x00, 0x00, 0x00, 0x00, 0x00, 0x00,
  0x00, 0x00, 0x00, 0x00, 0x00, 0x00, 0x00, 0x00, 0x00, 0x00, 0x00, 0x00,
  0x00, 0x00, 0x00, 0x00, 0x00, 0x00, 0x00, 0x00, 0x00, 0x00, 0x00, 0x00,
  0x00, 0x00, 0x00, 0x00, 0x00, 0x00, 0x00, 0x00, 0x00, 0x00, 0x00, 0x00,
  0x00, 0x00, 0x00, 0x00, 0x00, 0x00, 0x00, 0x00, 0x00, 0x00, 0x00, 0x00,
  0x00, 0x00, 0x00, 0x00, 0x00, 0x00, 0x00, 0x00, 0x00, 0x00, 0x00, 0x00,
  0x00, 0x00, 0x00, 0x00, 0x00, 0x00, 0x00, 0x00, 0x00, 0x00, 0x00, 0x00,
  0x00, 0x00, 0x00, 0x00, 0x00, 0x00, 0x00, 0x00, 0x00, 0x00, 0x00, 0x00,
  0x00, 0x00, 0x00, 0x00, 0x00, 0x00, 0x00, 0x00, 0x00, 0x00, 0x00, 0x00,
  0x00, 0x00, 0x00, 0x00, 0x00, 0x00, 0x00, 0x00, 0x00, 0x00, 0x00, 0x00,
  0x00, 0x00, 0x00, 0x00, 0x00, 0x00, 0x00, 0x00, 0x00, 0x00, 0x00, 0x00,
  0x00, 0x00, 0x00, 0x00, 0x00, 0x00, 0x00, 0x00, 0x00, 0x00, 0x00, 0x00,
  0x00, 0x00, 0x00, 0x00, 0x00, 0x00, 0x00, 0x00, 0x00, 0x00, 0x00, 0x00,
  0x00, 0x00, 0x00, 0x00, 0x00, 0x00, 0x00, 0x00, 0x00, 0x00, 0x00, 0x00,
  0x00, 0x00, 0x00, 0x00, 0x00, 0x00, 0x00, 0x00, 0x00, 0x00, 0x00, 0x00,
  0x00, 0x00, 0x00, 0x00, 0x00, 0x00, 0x00, 0x00, 0x00, 0x00, 0x00, 0x00,
  0x00, 0x00, 0x00, 0x00, 0x00, 0x00, 0x00, 0x00, 0x00, 0x00, 0x00, 0x00,
  0x00, 0x00, 0x00, 0x00, 0x00, 0x00, 0x00, 0x00, 0x00, 0x00, 0x00, 0x00,
  0x00, 0x00, 0x00, 0x00, 0x00, 0x00, 0x00, 0x00, 0x00, 0x00, 0x00, 0x00,
  0x00, 0x00, 0x00, 0x00, 0x00, 0x00, 0x00, 0x00, 0x00, 0x00, 0x00, 0x00,
  0x00, 0x00, 0x00, 0x00, 0x00, 0x00, 0x00, 0x00, 0x00, 0x00, 0x00, 0x00,
  0x00, 0x00, 0x00, 0x00, 0x00, 0x00, 0x00, 0x00, 0x00, 0x00, 0x00, 0x00,
  0x00, 0x00, 0x00, 0x00, 0x00, 0x00, 0x00, 0x00, 0x00, 0x00, 0x00, 0x00,
  0x00, 0x00, 0x00, 0x00, 0x00, 0x00, 0x00, 0x00, 0x00, 0x00, 0x00, 0x00,
  0x00, 0x00, 0x00, 0x00, 0x00, 0x00, 0x00, 0x00, 0x00, 0x00, 0x00, 0x00,
  0x00, 0x00, 0x00, 0x00, 0x00, 0x00, 0x00, 0x00, 0x00, 0x00, 0x00, 0x00,
  0x00, 0x00, 0x00, 0x00, 0x00, 0x00, 0x00, 0x00, 0x00, 0x00, 0x00, 0x00,
  0x00, 0x00, 0x00, 0x00, 0x00, 0x00, 0x00, 0x00, 0x00, 0x00, 0x00, 0x00,
  0x00, 0x00, 0x00, 0x00, 0x00, 0x00, 0x00, 0x00, 0x00, 0x00, 0x00, 0x00,
  0x00, 0x00, 0x00, 0x00, 0x00, 0x00, 0x00, 0x00, 0x00, 0x00, 0x00, 0x00,
  0x00, 0x00, 0x00, 0x00, 0x00, 0x00, 0x00, 0x00, 0x00, 0x00, 0x00, 0x00,
  0x00, 0x00, 0x00, 0x00, 0x00, 0x00, 0x00, 0x00, 0x00, 0x00, 0x00, 0x00,
  0x00, 0x00, 0x00, 0x00, 0x00, 0x00, 0x00, 0x00, 0x32, 0x00, 0x00, 0x00,
  0x6a, 0x8e, 0xe1, 0x3a, 0xc5, 0x04, 0x2e, 0x3b, 0x3c, 0x16, 0xe4, 0x3b,
  0xaf, 0x79, 0x86, 0x3b, 0xa3, 0x56, 0xeb, 0x3a, 0x59, 0x69, 0x67, 0x3b,
  0xeb, 0x10, 0xec, 0x3a, 0x60, 0xa6, 0xea, 0x3a, 0x49, 0x0c, 0xeb, 0x3a,
  0x27, 0xe1, 0xe6, 0x3a, 0xe9, 0x20, 0x59, 0x3c, 0x2c, 0xfd, 0x74, 0x3c,
  0x23, 0x7e, 0x83, 0x3b, 0x37, 0xda, 0xe8, 0x3a, 0x53, 0x97, 0xeb, 0x3a,
  0xb2, 0xb8, 0xec, 0x3a, 0xb8, 0xc1, 0xb8, 0x3b, 0x52, 0xb8, 0xe0, 0x3a,
  0x5d, 0x23, 0xeb, 0x3a, 0x77, 0x1b, 0xec, 0x3a, 0x5c, 0x25, 0xe9, 0x3a,
  0xf3, 0x06, 0xa0, 0x3b, 0x94, 0xc8, 0xaa, 0x3b, 0x9a, 0xa7, 0xec, 0x3a,
  0x52, 0xb2, 0xeb, 0x3a, 0x16, 0xb8, 0xde, 0x3a, 0xcc, 0xf3, 0x40, 0x3c,
  0xed, 0x8b, 0x88, 0x3b, 0xe5, 0xec, 0xe9, 0x3a, 0xc4, 0x99, 0x77, 0x3b,
  0x46, 0xd0, 0xea, 0x3a, 0x6b, 0x2d, 0xe6, 0x3a, 0xc2, 0x88, 0x01, 0x3b,
  0xd7, 0x61, 0xe9, 0x3a, 0x17, 0x41, 0x0c, 0x3c, 0xf1, 0xca, 0x8a, 0x3b,
  0x50, 0xb4, 0xeb, 0x3a, 0x47, 0x36, 0xe8, 0x3a, 0x05, 0x2a, 0xc7, 0x3b,
  0xd6, 0x51, 0xea, 0x3a, 0x6b, 0x28, 0xe8, 0x3a, 0xf4, 0xd0, 0x70, 0x3b,
  0x4a, 0xbe, 0xea, 0x3a, 0x39, 0x7c, 0x8c, 0x3b, 0x39, 0x16, 0xf9, 0x3a,
  0xae, 0xb9, 0xea, 0x3a, 0xa5, 0x7e, 0xea, 0x3a, 0xca, 0x29, 0xec, 0x3a,
  0xa0, 0x99, 0xf4, 0x3a, 0xe1, 0x7a, 0xfd, 0x3a, 0x11, 0x00, 0x00, 0x00,
  0x74, 0x66, 0x6c, 0x2e, 0x70, 0x73, 0x65, 0x75, 0x64, 0x6f, 0x5f, 0x71,
  0x63, 0x6f, 0x6e, 0x73, 0x74, 0x00, 0x00, 0x00, 0x02, 0x00, 0x00, 0x00,
  0x32, 0x00, 0x00, 0x00, 0x40, 0x00, 0x00, 0x00, 0xd2, 0xfe, 0xff, 0xff,
  0x00, 0x00, 0x00, 0x01, 0x10, 0x00, 0x00, 0x00, 0x10, 0x00, 0x00, 0x00,
  0x0a, 0x00, 0x00, 0x00, 0x1c, 0x00, 0x00, 0x00, 0x94, 0xfd, 0xff, 0xff,
  0x0f, 0x00, 0x00, 0x00, 0x61, 0x72, 0x69, 0x74, 0x68, 0x2e, 0x63, 0x6f,
  0x6e, 0x73, 0x74, 0x61, 0x6e, 0x74, 0x38, 0x00, 0x02, 0x00, 0x00, 0x00,
  0x01, 0x00, 0x00, 0x00, 0x32, 0x00, 0x00, 0x00, 0x0e, 0xff, 0xff, 0xff,
  0x00, 0x00, 0x00, 0x01, 0x10, 0x00, 0x00, 0x00, 0x10, 0x00, 0x00, 0x00,
  0x09, 0x00, 0x00, 0x00, 0x1c, 0x00, 0x00, 0x00, 0xd0, 0xfd, 0xff, 0xff,
  0x0f, 0x00, 0x00, 0x00, 0x61, 0x72, 0x69, 0x74, 0x68, 0x2e, 0x63, 0x6f,
  0x6e, 0x73, 0x74, 0x61, 0x6e, 0x74, 0x37, 0x00, 0x04, 0x00, 0x00, 0x00,
  0x40, 0x00, 0x00, 0x00, 0x01, 0x00, 0x00, 0x00, 0x02, 0x00, 0x00, 0x00,
  0x01, 0x00, 0x00, 0x00, 0x8e, 0xfe, 0xff, 0xff, 0x00, 0x00, 0x00, 0x01,
  0x14, 0x00, 0x00, 0x00, 0x14, 0x00, 0x00, 0x00, 0x08, 0x00, 0x00, 0x00,
  0x00, 0x00, 0x00, 0x02, 0x1c, 0x00, 0x00, 0x00, 0x18, 0xfe, 0xff, 0xff,
  0x0f, 0x00, 0x00, 0x00, 0x61, 0x72, 0x69, 0x74, 0x68, 0x2e, 0x63, 0x6f,
  0x6e, 0x73, 0x74, 0x61, 0x6e, 0x74, 0x36, 0x00, 0x01, 0x00, 0x00, 0x00,
  0x03, 0x00, 0x00, 0x00, 0x8e, 0xff, 0xff, 0xff, 0x00, 0x00, 0x00, 0x01,
  0x10, 0x00, 0x00, 0x00, 0x10, 0x00, 0x00, 0x00, 0x07, 0x00, 0x00, 0x00,
  0x1c, 0x00, 0x00, 0x00, 0x50, 0xfe, 0xff, 0xff, 0x0f, 0x00, 0x00, 0x00,
  0x61, 0x72, 0x69, 0x74, 0x68, 0x2e, 0x63, 0x6f, 0x6e, 0x73, 0x74, 0x61,
  0x6e, 0x74, 0x35, 0x00, 0x01, 0x00, 0x00, 0x00, 0x40, 0x00, 0x00, 0x00,
  0xc6, 0xff, 0xff, 0xff, 0x00, 0x00, 0x00, 0x01, 0x10, 0x00, 0x00, 0x00,
  0x10, 0x00, 0x00, 0x00, 0x06, 0x00, 0x00, 0x00, 0x1c, 0x00, 0x00, 0x00,
  0x88, 0xfe, 0xff, 0xff, 0x0f, 0x00, 0x00, 0x00, 0x61, 0x72, 0x69, 0x74,
  0x68, 0x2e, 0x63, 0x6f, 0x6e, 0x73, 0x74, 0x61, 0x6e, 0x74, 0x34, 0x00,
  0x01, 0x00, 0x00, 0x00, 0x01, 0x00, 0x00, 0x00, 0x00, 0x00, 0x16, 0x00,
  0x18, 0x00, 0x14, 0x00, 0x00, 0x00, 0x10, 0x00, 0x0c, 0x00, 0x08, 0x00,
  0x00, 0x00, 0x00, 0x00, 0x00, 0x00, 0x07, 0x00, 0x16, 0x00, 0x00, 0x00,
  0x00, 0x00, 0x00, 0x01, 0x10, 0x00, 0x00, 0x00, 0x10, 0x00, 0x00, 0x00,
  0x05, 0x00, 0x00, 0x00, 0x1c, 0x00, 0x00, 0x00, 0xd8, 0xfe, 0xff, 0xff,
  0x0f, 0x00, 0x00, 0x00, 0x61, 0x72, 0x69, 0x74, 0x68, 0x2e, 0x63, 0x6f,
  0x6e, 0x73, 0x74, 0x61, 0x6e, 0x74, 0x33, 0x00, 0x01, 0x00, 0x00, 0x00,
  0x32, 0x00, 0x00, 0x00, 0x8a, 0xff, 0xff, 0xff, 0x00, 0x00, 0x00, 0x01,
  0x14, 0x00, 0x00, 0x00, 0x14, 0x00, 0x00, 0x00, 0x04, 0x00, 0x00, 0x00,
  0x00, 0x00, 0x00, 0x02, 0x1c, 0x00, 0x00, 0x00, 0x14, 0xff, 0xff, 0xff,
  0x0f, 0x00, 0x00, 0x00, 0x61, 0x72, 0x69, 0x74, 0x68, 0x2e, 0x63, 0x6f,
  0x6e, 0x73, 0x74, 0x61, 0x6e, 0x74, 0x32, 0x00, 0x00, 0x00, 0x00, 0x00,
  0xc2, 0xff, 0xff, 0xff, 0x00, 0x00, 0x00, 0x01, 0x14, 0x00, 0x00, 0x00,
  0x14, 0x00, 0x00, 0x00, 0x03, 0x00, 0x00, 0x00, 0x00, 0x00, 0x00, 0x02,
  0x1c, 0x00, 0x00, 0x00, 0x4c, 0xff, 0xff, 0xff, 0x0f, 0x00, 0x00, 0x00,
  0x61, 0x72, 0x69, 0x74, 0x68, 0x2e, 0x63, 0x6f, 0x6e, 0x73, 0x74, 0x61,
  0x6e, 0x74, 0x31, 0x00, 0x01, 0x00, 0x00, 0x00, 0x02, 0x00, 0x00, 0x00,
  0x00, 0x00, 0x16, 0x00, 0x1c, 0x00, 0x18, 0x00, 0x17, 0x00, 0x10, 0x00,
  0x0c, 0x00, 0x08, 0x00, 0x00, 0x00, 0x00, 0x00, 0x00, 0x00, 0x07, 0x00,
  0x16, 0x00, 0x00, 0x00, 0x00, 0x00, 0x00, 0x01, 0x14, 0x00, 0x00, 0x00,
  0x14, 0x00, 0x00, 0x00, 0x02, 0x00, 0x00, 0x00, 0x00, 0x00, 0x00, 0x02,
  0x1c, 0x00, 0x00, 0x00, 0xa0, 0xff, 0xff, 0xff, 0x0e, 0x00, 0x00, 0x00,
  0x61, 0x72, 0x69, 0x74, 0x68, 0x2e, 0x63, 0x6f, 0x6e, 0x73, 0x74, 0x61,
  0x6e, 0x74, 0x00, 0x00, 0x00, 0x00, 0x00, 0x00, 0x00, 0x00, 0x16, 0x00,
  0x1c, 0x00, 0x18, 0x00, 0x00, 0x00, 0x14, 0x00, 0x10, 0x00, 0x0c, 0x00,
  0x00, 0x00, 0x00, 0x00, 0x08, 0x00, 0x07, 0x00, 0x16, 0x00, 0x00, 0x00,
  0x00, 0x00, 0x00, 0x01, 0x14, 0x00, 0x00, 0x00, 0x24, 0x00, 0x00, 0x00,
  0x24, 0x00, 0x00, 0x00, 0x01, 0x00, 0x00, 0x00, 0x40, 0x00, 0x00, 0x00,
  0x03, 0x00, 0x00, 0x00, 0xff, 0xff, 0xff, 0xff, 0x03, 0x00, 0x00, 0x00,
  0x01, 0x00, 0x00, 0x00, 0x04, 0x00, 0x04, 0x00, 0x04, 0x00, 0x00, 0x00,
  0x1f, 0x00, 0x00, 0x00, 0x73, 0x65, 0x72, 0x76, 0x69, 0x6e, 0x67, 0x5f,
  0x64, 0x65, 0x66, 0x61, 0x75, 0x6c, 0x74, 0x5f, 0x69, 0x6e, 0x70, 0x75,
  0x74, 0x5f, 0x6c, 0x61, 0x79, 0x65, 0x72, 0x5f, 0x31, 0x3a, 0x30, 0x00,
  0x03, 0x00, 0x00, 0x00, 0x01, 0x00, 0x00, 0x00, 0x03, 0x00, 0x00, 0x00,
  0x01, 0x00, 0x00, 0x00, 0x05, 0x00, 0x00, 0x00, 0x60, 0x00, 0x00, 0x00,
  0x44, 0x00, 0x00, 0x00, 0x34, 0x00, 0x00, 0x00, 0x24, 0x00, 0x00, 0x00,
  0x10, 0x00, 0x00, 0x00, 0x0c, 0x00, 0x10, 0x00, 0x0f, 0x00, 0x00, 0x00,
  0x08, 0x00, 0x04, 0x00, 0x0c, 0x00, 0x00, 0x00, 0x09, 0x00, 0x00, 0x00,
  0x0c, 0x00, 0x00, 0x00, 0x00, 0x00, 0x00, 0x09, 0xdc, 0xff, 0xff, 0xff,
  0x11, 0x00, 0x00, 0x00, 0x00, 0x00, 0x00, 0x11, 0xe8, 0xff, 0xff, 0xff,
  0x16, 0x00, 0x00, 0x00, 0x00, 0x00, 0x00, 0x16, 0xf4, 0xff, 0xff, 0xff,
  0x03, 0x00, 0x00, 0x00, 0x00, 0x00, 0x00, 0x03, 0x0c, 0x00, 0x0c, 0x00,
  0x0b, 0x00, 0x00, 0x00, 0x00, 0x00, 0x04, 0x00, 0x0c, 0x00, 0x00, 0x00,
  0x46, 0x00, 0x00, 0x00, 0x00, 0x00, 0x00, 0x46
};
unsigned int cnn_outputs_temperature_tflite_len = 8408;
