unsigned char humidity_model_tflite[] = {
  0x1c, 0x00, 0x00, 0x00, 0x54, 0x46, 0x4c, 0x33, 0x14, 0x00, 0x20, 0x00,
  0x1c, 0x00, 0x18, 0x00, 0x14, 0x00, 0x10, 0x00, 0x0c, 0x00, 0x00, 0x00,
  0x08, 0x00, 0x04, 0x00, 0x14, 0x00, 0x00, 0x00, 0x1c, 0x00, 0x00, 0x00,
  0x98, 0x00, 0x00, 0x00, 0xf0, 0x00, 0x00, 0x00, 0x34, 0x07, 0x00, 0x00,
  0x44, 0x07, 0x00, 0x00, 0xfc, 0x0c, 0x00, 0x00, 0x03, 0x00, 0x00, 0x00,
  0x01, 0x00, 0x00, 0x00, 0x10, 0x00, 0x00, 0x00, 0x00, 0x00, 0x0a, 0x00,
  0x10, 0x00, 0x0c, 0x00, 0x08, 0x00, 0x04, 0x00, 0x0a, 0x00, 0x00, 0x00,
  0x0c, 0x00, 0x00, 0x00, 0x1c, 0x00, 0x00, 0x00, 0x3c, 0x00, 0x00, 0x00,
  0x0f, 0x00, 0x00, 0x00, 0x73, 0x65, 0x72, 0x76, 0x69, 0x6e, 0x67, 0x5f,
  0x64, 0x65, 0x66, 0x61, 0x75, 0x6c, 0x74, 0x00, 0x01, 0x00, 0x00, 0x00,
  0x04, 0x00, 0x00, 0x00, 0x90, 0xff, 0xff, 0xff, 0x0b, 0x00, 0x00, 0x00,
  0x04, 0x00, 0x00, 0x00, 0x08, 0x00, 0x00, 0x00, 0x6f, 0x75, 0x74, 0x70,
  0x75, 0x74, 0x5f, 0x30, 0x00, 0x00, 0x00, 0x00, 0x01, 0x00, 0x00, 0x00,
  0x04, 0x00, 0x00, 0x00, 0x7a, 0xf9, 0xff, 0xff, 0x04, 0x00, 0x00, 0x00,
  0x0f, 0x00, 0x00, 0x00, 0x6b, 0x65, 0x72, 0x61, 0x73, 0x5f, 0x74, 0x65,
  0x6e, 0x73, 0x6f, 0x72, 0x5f, 0x31, 0x35, 0x00, 0x02, 0x00, 0x00, 0x00,
  0x34, 0x00, 0x00, 0x00, 0x04, 0x00, 0x00, 0x00, 0xdc, 0xff, 0xff, 0xff,
  0x0e, 0x00, 0x00, 0x00, 0x04, 0x00, 0x00, 0x00, 0x13, 0x00, 0x00, 0x00,
  0x43, 0x4f, 0x4e, 0x56, 0x45, 0x52, 0x53, 0x49, 0x4f, 0x4e, 0x5f, 0x4d,
  0x45, 0x54, 0x41, 0x44, 0x41, 0x54, 0x41, 0x00, 0x08, 0x00, 0x0c, 0x00,
  0x08, 0x00, 0x04, 0x00, 0x08, 0x00, 0x00, 0x00, 0x0d, 0x00, 0x00, 0x00,
  0x04, 0x00, 0x00, 0x00, 0x13, 0x00, 0x00, 0x00, 0x6d, 0x69, 0x6e, 0x5f,
  0x72, 0x75, 0x6e, 0x74, 0x69, 0x6d, 0x65, 0x5f, 0x76, 0x65, 0x72, 0x73,
  0x69, 0x6f, 0x6e, 0x00, 0x0f, 0x00, 0x00, 0x00, 0x40, 0x06, 0x00, 0x00,
  0x38, 0x06, 0x00, 0x00, 0x08, 0x06, 0x00, 0x00, 0xf0, 0x03, 0x00, 0x00,
  0x60, 0x01, 0x00, 0x00, 0x10, 0x01, 0x00, 0x00, 0xfc, 0x00, 0x00, 0x00,
  0xcc, 0x00, 0x00, 0x00, 0xb4, 0x00, 0x00, 0x00, 0xac, 0x00, 0x00, 0x00,
  0xa4, 0x00, 0x00, 0x00, 0x9c, 0x00, 0x00, 0x00, 0x94, 0x00, 0x00, 0x00,
  0x74, 0x00, 0x00, 0x00, 0x04, 0x00, 0x00, 0x00, 0x32, 0xfa, 0xff, 0xff,
  0x04, 0x00, 0x00, 0x00, 0x60, 0x00, 0x00, 0x00, 0x10, 0x00, 0x00, 0x00,
  0x00, 0x00, 0x00, 0x00, 0x08, 0x00, 0x0e, 0x00, 0x08, 0x00, 0x04, 0x00,
  0x08, 0x00, 0x00, 0x00, 0x10, 0x00, 0x00, 0x00, 0x24, 0x00, 0x00, 0x00,
  0x00, 0x00, 0x06, 0x00, 0x08, 0x00, 0x04, 0x00, 0x06, 0x00, 0x00, 0x00,
  0x04, 0x00, 0x00, 0x00, 0x00, 0x00, 0x00, 0x00, 0x0c, 0x00, 0x18, 0x00,
  0x14, 0x00, 0x10, 0x00, 0x0c, 0x00, 0x04, 0x00, 0x0c, 0x00, 0x00, 0x00,
  0xb0, 0xa7, 0x98, 0x28, 0x57, 0xf0, 0xe8, 0x04, 0x02, 0x00, 0x00, 0x00,
  0x02, 0x00, 0x00, 0x00, 0x04, 0x00, 0x00, 0x00, 0x06, 0x00, 0x00, 0x00,
  0x32, 0x2e, 0x31, 0x38, 0x2e, 0x30, 0x00, 0x00, 0x9e, 0xfa, 0xff, 0xff,
  0x04, 0x00, 0x00, 0x00, 0x10, 0x00, 0x00, 0x00, 0x31, 0x2e, 0x35, 0x2e,
  0x30, 0x00, 0x00, 0x00, 0x00, 0x00, 0x00, 0x00, 0x00, 0x00, 0x00, 0x00,
  0xf0, 0xf4, 0xff, 0xff, 0xf4, 0xf4, 0xff, 0xff, 0xf8, 0xf4, 0xff, 0xff,
  0xfc, 0xf4, 0xff, 0xff, 0xca, 0xfa, 0xff, 0xff, 0x04, 0x00, 0x00, 0x00,
  0x08, 0x00, 0x00, 0x00, 0xff, 0xff, 0xff, 0xff, 0x0a, 0x00, 0x00, 0x00,
  0xde, 0xfa, 0xff, 0xff, 0x04, 0x00, 0x00, 0x00, 0x20, 0x00, 0x00, 0x00,
  0x7b, 0x90, 0x53, 0xbd, 0xe7, 0x7b, 0x7d, 0xbd, 0x38, 0x45, 0x4d, 0xbd,
  0xee, 0xcd, 0x77, 0xbd, 0x7c, 0x8f, 0x56, 0x3d, 0x7f, 0xff, 0x83, 0x3d,
  0xd1, 0xcc, 0xb9, 0xbc, 0xb9, 0xc9, 0x86, 0x3d, 0x0a, 0xfb, 0xff, 0xff,
  0x04, 0x00, 0x00, 0x00, 0x04, 0x00, 0x00, 0x00, 0x8f, 0x5d, 0x81, 0x3d,
  0x1a, 0xfb, 0xff, 0xff, 0x04, 0x00, 0x00, 0x00, 0x40, 0x00, 0x00, 0x00,
  0x00, 0x00, 0x00, 0x00, 0x00, 0x00, 0x00, 0x00, 0x31, 0x22, 0x96, 0x3d,
  0x00, 0x00, 0x00, 0x00, 0xd9, 0x2e, 0x7f, 0xbd, 0x00, 0x00, 0x00, 0x00,
  0x00, 0x00, 0x00, 0x00, 0x73, 0xd1, 0x72, 0x3d, 0x00, 0x00, 0x00, 0x00,
  0x00, 0x00, 0x00, 0x00, 0xa5, 0x53, 0x48, 0xbd, 0xb1, 0x55, 0x28, 0xbc,
  0xc1, 0x50, 0x8b, 0x3d, 0x00, 0x00, 0x00, 0x00, 0x00, 0x00, 0x00, 0x00,
  0x00, 0x00, 0x00, 0x00, 0x66, 0xfb, 0xff, 0xff, 0x04, 0x00, 0x00, 0x00,
  0x80, 0x02, 0x00, 0x00, 0x00, 0x81, 0x65, 0xbc, 0xfc, 0x7b, 0x38, 0x3e,
  0xfe, 0x64, 0xda, 0xbe, 0x34, 0x7f, 0xe3, 0x3e, 0x20, 0xe5, 0x0e, 0x3e,
  0xa9, 0x8d, 0xc5, 0xbe, 0x1f, 0x5b, 0x8c, 0xbe, 0x80, 0x66, 0xbe, 0x3c,
  0x20, 0xdd, 0xae, 0xbe, 0x98, 0x59, 0xba, 0x3d, 0xbf, 0x28, 0x74, 0xbe,
  0xe4, 0x06, 0x0c, 0xbe, 0x78, 0x7b, 0x03, 0xbd, 0xa4, 0x2d, 0xd6, 0xbe,
  0x04, 0xf2, 0xde, 0x3e, 0x6c, 0x30, 0x5f, 0xbe, 0x24, 0x94, 0x4a, 0x3e,
  0xd8, 0x40, 0x3b, 0xbe, 0x60, 0x7f, 0xf8, 0x3c, 0x5c, 0x49, 0xaa, 0x3e,
  0xcd, 0x22, 0xf3, 0x3e, 0x6e, 0xf4, 0x5c, 0xbe, 0x22, 0x75, 0x6d, 0x3d,
  0xaf, 0xae, 0x57, 0x3e, 0xa2, 0xe4, 0x84, 0x3e, 0xca, 0xda, 0xdd, 0xbd,
  0xd9, 0xc4, 0x20, 0x3e, 0x58, 0x2f, 0xf7, 0xbc, 0x76, 0xb8, 0x53, 0x3d,
  0x04, 0x3e, 0x97, 0xbd, 0xeb, 0xab, 0x85, 0xbe, 0x42, 0x53, 0x7c, 0xbe,
  0x2e, 0x03, 0xa3, 0xbe, 0x0c, 0x20, 0xaf, 0x3e, 0xdc, 0xf5, 0xd2, 0x3e,
  0x90, 0x10, 0xc4, 0x3d, 0x7c, 0x13, 0x9d, 0xbe, 0x14, 0x7c, 0x41, 0x3e,
  0x18, 0xda, 0xfa, 0xbd, 0xa4, 0xa6, 0xbc, 0xbe, 0x39, 0xe3, 0xd0, 0xbe,
  0xf6, 0x5d, 0xc0, 0x3e, 0x7d, 0x52, 0x04, 0x3e, 0xd9, 0xb7, 0xa4, 0xbe,
  0xd0, 0x3f, 0x14, 0xbe, 0xdc, 0x25, 0xc3, 0x3d, 0x54, 0xe1, 0x18, 0x3e,
  0xbd, 0x17, 0xc5, 0x3d, 0x6f, 0x47, 0xb0, 0x3e, 0xf6, 0x8c, 0xcb, 0xbc,
  0xe6, 0x10, 0xac, 0xbe, 0xb0, 0xc3, 0xd4, 0xbe, 0xfa, 0x3d, 0x36, 0xbe,
  0x76, 0xac, 0xd7, 0x3e, 0x17, 0x69, 0xdf, 0xbe, 0x4e, 0x56, 0x90, 0xbe,
  0xa2, 0xcf, 0x88, 0x3e, 0x88, 0xfc, 0x92, 0x3e, 0xe8, 0x2f, 0xcc, 0x3e,
  0xd6, 0xcf, 0x26, 0xbe, 0xd8, 0xef, 0xb0, 0xbe, 0xce, 0x06, 0xee, 0x3e,
  0xd2, 0x56, 0xce, 0xbe, 0x5f, 0xbc, 0x7a, 0xbe, 0x8a, 0x8f, 0xb1, 0x3e,
  0x80, 0xda, 0x20, 0xbb, 0x80, 0x73, 0xd8, 0x3b, 0x14, 0xb4, 0x2d, 0x3e,
  0xa2, 0x16, 0x39, 0xbe, 0xcc, 0xc9, 0x0d, 0x3e, 0xc6, 0xc5, 0xc4, 0x3e,
  0x5d, 0xd4, 0xbe, 0xbd, 0xcf, 0xb3, 0x4b, 0xbe, 0xb1, 0x90, 0xc7, 0xbd,
  0x9f, 0x5e, 0x70, 0x3d, 0x27, 0x33, 0xff, 0x3e, 0x63, 0x27, 0x4c, 0x3e,
  0x2b, 0x2e, 0xa4, 0xbe, 0xac, 0xe0, 0xe8, 0x3c, 0x78, 0x76, 0x0b, 0x3f,
  0xdd, 0xf1, 0xe8, 0xbe, 0x68, 0xec, 0x01, 0x3e, 0x94, 0x31, 0xfc, 0xbd,
  0x40, 0x24, 0x0a, 0xbe, 0x56, 0x4b, 0xd0, 0xbe, 0x2b, 0xe6, 0xe6, 0xbe,
  0xb8, 0x2b, 0x03, 0xbd, 0x16, 0x83, 0xf4, 0x3e, 0xbc, 0x88, 0x5a, 0xbe,
  0x70, 0x71, 0xe8, 0x3e, 0x12, 0x9e, 0xc4, 0xbe, 0xec, 0xf1, 0x67, 0xbe,
  0x40, 0xcc, 0xb7, 0x3c, 0x16, 0x77, 0xa0, 0xbe, 0xe0, 0x77, 0xf5, 0x3e,
  0xf9, 0x5e, 0xd5, 0xbe, 0xe8, 0x9f, 0xa2, 0xbe, 0xb0, 0xe8, 0x35, 0x3d,
  0x6c, 0x01, 0x28, 0x3e, 0xf4, 0x1f, 0xa6, 0x3e, 0x64, 0xa4, 0x18, 0x3e,
  0x2b, 0xb1, 0x1d, 0x3e, 0x5d, 0xfe, 0xda, 0xbe, 0x61, 0x0d, 0x22, 0x3e,
  0xd2, 0x25, 0x12, 0x3e, 0x21, 0x69, 0x17, 0xbd, 0x3d, 0xb3, 0x8b, 0x3e,
  0x57, 0x2b, 0xe4, 0x3c, 0x62, 0x14, 0x3b, 0xbe, 0x66, 0x57, 0xb5, 0x3e,
  0x5d, 0x02, 0x06, 0xbe, 0xd6, 0x0c, 0x82, 0x3e, 0x3a, 0xe9, 0x7e, 0x3e,
  0xbb, 0x06, 0xe4, 0x3e, 0x14, 0x17, 0x28, 0x3e, 0x8a, 0x99, 0x71, 0xbe,
  0x9f, 0x66, 0xf6, 0xbe, 0x9f, 0xb4, 0x9a, 0xbd, 0x58, 0x21, 0x8e, 0xbe,
  0x14, 0x1a, 0x5b, 0xbd, 0xcc, 0xfa, 0xca, 0xbe, 0x79, 0x9b, 0x25, 0xbd,
  0x1c, 0xb8, 0x37, 0x3e, 0x8f, 0x23, 0x18, 0x3e, 0xc4, 0xf7, 0x6f, 0xba,
  0x10, 0x36, 0x9c, 0x3e, 0x8d, 0xbd, 0xb7, 0xbd, 0x57, 0x85, 0xd0, 0x3e,
  0x43, 0xd4, 0x63, 0x3d, 0x56, 0x26, 0x4a, 0x3e, 0x58, 0xe2, 0xe4, 0x3d,
  0xde, 0x64, 0xf2, 0xbe, 0x7b, 0x5e, 0xb7, 0xbe, 0x00, 0xdd, 0xc0, 0x3b,
  0x22, 0x06, 0x62, 0xbe, 0xfd, 0x56, 0xc8, 0xbe, 0x90, 0xc4, 0xe9, 0x3d,
  0x00, 0x41, 0x16, 0xbd, 0xc8, 0x01, 0x9a, 0xbe, 0x1d, 0xfb, 0xc4, 0xbe,
  0x5c, 0x4c, 0xe1, 0x3e, 0xde, 0xfe, 0xb2, 0x3e, 0xc4, 0x78, 0x2a, 0xbe,
  0x87, 0x0f, 0xd5, 0xbe, 0x36, 0x23, 0x65, 0xbe, 0x4e, 0x33, 0xac, 0x3e,
  0xca, 0x7f, 0xbf, 0xbe, 0x30, 0x67, 0xd9, 0xbc, 0x29, 0x61, 0xef, 0xbe,
  0xba, 0xce, 0x8f, 0x3e, 0xc0, 0x0d, 0x88, 0x3b, 0x60, 0x67, 0xf1, 0xbe,
  0xc8, 0x46, 0x28, 0x3e, 0xb4, 0x31, 0x9c, 0xbd, 0xd9, 0xb1, 0x80, 0xbe,
  0x20, 0xfa, 0x85, 0x3d, 0xc4, 0x6a, 0xf4, 0x3e, 0xe8, 0x1b, 0xef, 0xbd,
  0x29, 0x3c, 0xcd, 0xbe, 0x70, 0x7e, 0xdc, 0xbe, 0xf2, 0xfd, 0xff, 0xff,
  0x04, 0x00, 0x00, 0x00, 0x00, 0x02, 0x00, 0x00, 0x5c, 0x0c, 0xce, 0x3e,
  0xb0, 0x2a, 0x27, 0x3e, 0x17, 0x00, 0x06, 0xbf, 0x80, 0x7c, 0x50, 0xbd,
  0x7e, 0x31, 0xd6, 0x3e, 0x80, 0x84, 0xd9, 0xbc, 0xe4, 0x26, 0xdc, 0x3e,
  0x6e, 0x54, 0xb3, 0x3e, 0xec, 0x68, 0xe4, 0x3e, 0x74, 0x67, 0x8f, 0xbe,
  0x16, 0x57, 0x99, 0x3e, 0xa6, 0x2b, 0x87, 0xbe, 0x59, 0xca, 0x5d, 0x3d,
  0xd0, 0x44, 0x28, 0x3e, 0x54, 0xff, 0xbc, 0xbe, 0xf8, 0xc1, 0xc4, 0x3e,
  0xe0, 0x46, 0x46, 0x3d, 0x70, 0x3c, 0xb0, 0xbd, 0x80, 0x47, 0x32, 0x3e,
  0xa4, 0x7b, 0xfa, 0x3e, 0xbb, 0x93, 0x65, 0x3e, 0xe8, 0x03, 0x45, 0x3e,
  0xc0, 0xf7, 0xc8, 0x3e, 0xc7, 0xb3, 0xd2, 0x3d, 0x78, 0x67, 0xe3, 0x3e,
  0xc0, 0x77, 0xe7, 0xbd, 0x1f, 0x96, 0x7e, 0x3e, 0x2a, 0x7b, 0xfa, 0x3e,
  0xa4, 0xa7, 0x0c, 0xbf, 0x88, 0x89, 0x68, 0xbe, 0x5c, 0x44, 0x88, 0xbe,
  0xd0, 0xa8, 0xfa, 0x3e, 0xc0, 0xc1, 0x83, 0xbc, 0x14, 0xc6, 0xae, 0xbe,
  0xcd, 0x23, 0xe0, 0xbe, 0xb8, 0x58, 0x32, 0x3e, 0x3b, 0x95, 0xd0, 0x3e,
  0x28, 0xe3, 0xf8, 0xbe, 0xc8, 0x87, 0x62, 0xbe, 0xbd, 0x76, 0xb8, 0xbe,
  0xb8, 0x61, 0xff, 0xbe, 0xe0, 0x3d, 0x45, 0xbd, 0x5b, 0x89, 0x82, 0x3e,
  0x56, 0xa4, 0x5b, 0x3d, 0xbc, 0x8b, 0xa9, 0x3b, 0xa8, 0x89, 0x6e, 0x3e,
  0x00, 0x09, 0x63, 0x3d, 0x4c, 0x7b, 0xe9, 0x3e, 0x50, 0x46, 0x84, 0x3e,
  0x78, 0x7a, 0xc9, 0xbe, 0xd7, 0x9e, 0x36, 0x3e, 0x20, 0x2e, 0x26, 0xbe,
  0x4c, 0xc1, 0xd3, 0x3e, 0x38, 0x10, 0x9f, 0x3e, 0x70, 0xe1, 0x8a, 0x3d,
  0x09, 0x73, 0xdb, 0x3d, 0xc8, 0x16, 0x83, 0x3e, 0xc0, 0x8d, 0x1a, 0x3d,
  0x48, 0x5b, 0xd8, 0x3e, 0x43, 0x33, 0x7f, 0xbe, 0xc4, 0x9e, 0x30, 0x3c,
  0x3c, 0x5c, 0xd9, 0x3e, 0xd4, 0xab, 0xe4, 0xbe, 0xf8, 0xd3, 0xcc, 0xbe,
  0x70, 0xbd, 0x51, 0xbe, 0x08, 0x1f, 0x1e, 0x3e, 0xa9, 0x8b, 0xfa, 0x3e,
  0x40, 0x39, 0xdb, 0xbe, 0x08, 0x1a, 0xc5, 0xbe, 0x50, 0x85, 0xce, 0x3e,
  0x48, 0x91, 0xdc, 0x3e, 0xdc, 0x81, 0x06, 0x3f, 0x00, 0x9c, 0x6d, 0xbe,
  0x18, 0xa2, 0xe7, 0xbe, 0x8e, 0xd5, 0xeb, 0xbd, 0x80, 0x50, 0x2b, 0xbe,
  0x02, 0xef, 0x14, 0x3c, 0x00, 0x21, 0xfc, 0xbd, 0xb0, 0x28, 0xbc, 0xbd,
  0x48, 0x9c, 0x3d, 0x3e, 0xe4, 0x9e, 0x88, 0x3e, 0x80, 0x04, 0x80, 0xbd,
  0xd1, 0xc5, 0x75, 0x3e, 0x88, 0xde, 0xbd, 0xbe, 0x89, 0x7a, 0xac, 0xbc,
  0x30, 0x42, 0xc0, 0xbd, 0xb0, 0xf2, 0xef, 0xbe, 0x8a, 0xce, 0x36, 0xbe,
  0x40, 0xf0, 0x26, 0x3e, 0x74, 0xca, 0xe2, 0x3e, 0x8d, 0x99, 0x7c, 0x3e,
  0xe8, 0x2e, 0x7f, 0xbe, 0xa4, 0x73, 0xb8, 0x3d, 0x00, 0x2c, 0x8c, 0xbd,
  0xe8, 0x73, 0xe0, 0x3e, 0x80, 0xc4, 0x7c, 0xbd, 0x40, 0x2e, 0xfa, 0xbd,
  0x4c, 0x05, 0xb4, 0xbe, 0xfa, 0x8e, 0xc2, 0x3e, 0xd0, 0x10, 0xa3, 0x3e,
  0xc9, 0x2a, 0x12, 0xbf, 0x3c, 0xc2, 0x89, 0x3e, 0x20, 0xc2, 0x6b, 0xbe,
  0xef, 0xf7, 0xb0, 0xbc, 0x80, 0x8d, 0x46, 0x3c, 0xa0, 0xd6, 0xfa, 0xbd,
  0xea, 0x4a, 0x4c, 0xbe, 0xb8, 0x96, 0xa1, 0x3e, 0xee, 0x02, 0x87, 0x3d,
  0x68, 0x71, 0x34, 0xbe, 0x00, 0x43, 0x62, 0x3e, 0x18, 0x37, 0x42, 0xbe,
  0xa4, 0x37, 0xe3, 0x3e, 0x70, 0x5e, 0xc3, 0x3d, 0xf4, 0x1d, 0xe5, 0x3e,
  0x50, 0x76, 0x6d, 0xbe, 0x9f, 0xe4, 0xbb, 0xbe, 0x08, 0x81, 0x75, 0x3e,
  0xe8, 0xae, 0xff, 0x3e, 0xd1, 0xe0, 0xf9, 0x3e, 0xa0, 0xc3, 0x50, 0x3e,
  0xc8, 0xaf, 0x4f, 0xbe, 0x28, 0x98, 0xb7, 0x3e, 0x4f, 0x7c, 0xc8, 0xbe,
  0x5e, 0x5d, 0x0e, 0x3e, 0xbc, 0xa0, 0xff, 0xbe, 0x74, 0xab, 0xa1, 0x3e,
  0x18, 0x1f, 0x6d, 0xbe, 0x00, 0x00, 0x06, 0x00, 0x08, 0x00, 0x04, 0x00,
  0x06, 0x00, 0x00, 0x00, 0x04, 0x00, 0x00, 0x00, 0x20, 0x00, 0x00, 0x00,
  0x8b, 0x15, 0x1a, 0xbc, 0x5a, 0xd9, 0x08, 0xbf, 0x58, 0x5d, 0x23, 0xbf,
  0x70, 0x45, 0x5e, 0xbe, 0x6e, 0xd6, 0x4a, 0x3f, 0xfc, 0x7e, 0x3a, 0x3f,
  0x40, 0x36, 0x9d, 0xbf, 0x83, 0xb7, 0xda, 0x3e, 0x68, 0xfa, 0xff, 0xff,
  0x6c, 0xfa, 0xff, 0xff, 0x0f, 0x00, 0x00, 0x00, 0x4d, 0x4c, 0x49, 0x52,
  0x20, 0x43, 0x6f, 0x6e, 0x76, 0x65, 0x72, 0x74, 0x65, 0x64, 0x2e, 0x00,
  0x01, 0x00, 0x00, 0x00, 0x14, 0x00, 0x00, 0x00, 0x00, 0x00, 0x0e, 0x00,
  0x18, 0x00, 0x14, 0x00, 0x10, 0x00, 0x0c, 0x00, 0x08, 0x00, 0x04, 0x00,
  0x0e, 0x00, 0x00, 0x00, 0x14, 0x00, 0x00, 0x00, 0x1c, 0x00, 0x00, 0x00,
  0x14, 0x01, 0x00, 0x00, 0x18, 0x01, 0x00, 0x00, 0x1c, 0x01, 0x00, 0x00,
  0x04, 0x00, 0x00, 0x00, 0x6d, 0x61, 0x69, 0x6e, 0x00, 0x00, 0x00, 0x00,
  0x04, 0x00, 0x00, 0x00, 0xd8, 0x00, 0x00, 0x00, 0x88, 0x00, 0x00, 0x00,
  0x3c, 0x00, 0x00, 0x00, 0x04, 0x00, 0x00, 0x00, 0x92, 0xff, 0xff, 0xff,
  0x14, 0x00, 0x00, 0x00, 0x00, 0x00, 0x00, 0x08, 0x10, 0x00, 0x00, 0x00,
  0x14, 0x00, 0x00, 0x00, 0x01, 0x00, 0x00, 0x00, 0xec, 0xfa, 0xff, 0xff,
  0x01, 0x00, 0x00, 0x00, 0x0b, 0x00, 0x00, 0x00, 0x03, 0x00, 0x00, 0x00,
  0x0a, 0x00, 0x00, 0x00, 0x01, 0x00, 0x00, 0x00, 0x05, 0x00, 0x00, 0x00,
  0xc6, 0xff, 0xff, 0xff, 0x14, 0x00, 0x00, 0x00, 0x00, 0x00, 0x00, 0x08,
  0x14, 0x00, 0x00, 0x00, 0x18, 0x00, 0x00, 0x00, 0x01, 0x00, 0x00, 0x00,
  0xb6, 0xff, 0xff, 0xff, 0x00, 0x00, 0x00, 0x01, 0x01, 0x00, 0x00, 0x00,
  0x0a, 0x00, 0x00, 0x00, 0x03, 0x00, 0x00, 0x00, 0x09, 0x00, 0x00, 0x00,
  0x02, 0x00, 0x00, 0x00, 0x06, 0x00, 0x00, 0x00, 0x00, 0x00, 0x0e, 0x00,
  0x1a, 0x00, 0x14, 0x00, 0x10, 0x00, 0x0c, 0x00, 0x0b, 0x00, 0x04, 0x00,
  0x0e, 0x00, 0x00, 0x00, 0x1c, 0x00, 0x00, 0x00, 0x00, 0x00, 0x00, 0x08,
  0x1c, 0x00, 0x00, 0x00, 0x20, 0x00, 0x00, 0x00, 0x01, 0x00, 0x00, 0x00,
  0x00, 0x00, 0x06, 0x00, 0x08, 0x00, 0x07, 0x00, 0x06, 0x00, 0x00, 0x00,
  0x00, 0x00, 0x00, 0x01, 0x01, 0x00, 0x00, 0x00, 0x09, 0x00, 0x00, 0x00,
  0x03, 0x00, 0x00, 0x00, 0x08, 0x00, 0x00, 0x00, 0x03, 0x00, 0x00, 0x00,
  0x04, 0x00, 0x00, 0x00, 0x00, 0x00, 0x0a, 0x00, 0x0c, 0x00, 0x00, 0x00,
  0x08, 0x00, 0x04, 0x00, 0x0a, 0x00, 0x00, 0x00, 0x08, 0x00, 0x00, 0x00,
  0x0c, 0x00, 0x00, 0x00, 0x01, 0x00, 0x00, 0x00, 0x08, 0x00, 0x00, 0x00,
  0x02, 0x00, 0x00, 0x00, 0x00, 0x00, 0x00, 0x00, 0x07, 0x00, 0x00, 0x00,
  0x01, 0x00, 0x00, 0x00, 0x0b, 0x00, 0x00, 0x00, 0x01, 0x00, 0x00, 0x00,
  0x00, 0x00, 0x00, 0x00, 0x0c, 0x00, 0x00, 0x00, 0x04, 0x04, 0x00, 0x00,
  0xac, 0x03, 0x00, 0x00, 0x54, 0x03, 0x00, 0x00, 0x14, 0x03, 0x00, 0x00,
  0xd8, 0x02, 0x00, 0x00, 0x9c, 0x02, 0x00, 0x00, 0x60, 0x02, 0x00, 0x00,
  0x20, 0x02, 0x00, 0x00, 0xa4, 0x01, 0x00, 0x00, 0x04, 0x01, 0x00, 0x00,
  0x60, 0x00, 0x00, 0x00, 0x04, 0x00, 0x00, 0x00, 0x42, 0xfc, 0xff, 0xff,
  0x00, 0x00, 0x00, 0x01, 0x14, 0x00, 0x00, 0x00, 0x1c, 0x00, 0x00, 0x00,
  0x1c, 0x00, 0x00, 0x00, 0x0c, 0x00, 0x00, 0x00, 0x34, 0x00, 0x00, 0x00,
  0x02, 0x00, 0x00, 0x00, 0xff, 0xff, 0xff, 0xff, 0x01, 0x00, 0x00, 0x00,
  0x28, 0xfc, 0xff, 0xff, 0x1b, 0x00, 0x00, 0x00, 0x53, 0x74, 0x61, 0x74,
  0x65, 0x66, 0x75, 0x6c, 0x50, 0x61, 0x72, 0x74, 0x69, 0x74, 0x69, 0x6f,
  0x6e, 0x65, 0x64, 0x43, 0x61, 0x6c, 0x6c, 0x5f, 0x31, 0x3a, 0x30, 0x00,
  0x02, 0x00, 0x00, 0x00, 0x01, 0x00, 0x00, 0x00, 0x01, 0x00, 0x00, 0x00,
  0x9a, 0xfc, 0xff, 0xff, 0x00, 0x00, 0x00, 0x01, 0x14, 0x00, 0x00, 0x00,
  0x1c, 0x00, 0x00, 0x00, 0x1c, 0x00, 0x00, 0x00, 0x0b, 0x00, 0x00, 0x00,
  0x7c, 0x00, 0x00, 0x00, 0x02, 0x00, 0x00, 0x00, 0xff, 0xff, 0xff, 0xff,
  0x08, 0x00, 0x00, 0x00, 0x80, 0xfc, 0xff, 0xff, 0x61, 0x00, 0x00, 0x00,
  0x73, 0x65, 0x71, 0x75, 0x65, 0x6e, 0x74, 0x69, 0x61, 0x6c, 0x5f, 0x33,
  0x5f, 0x31, 0x2f, 0x64, 0x65, 0x6e, 0x73, 0x65, 0x5f, 0x31, 0x30, 0x5f,
  0x31, 0x2f, 0x4d, 0x61, 0x74, 0x4d, 0x75, 0x6c, 0x3b, 0x73, 0x65, 0x71,
  0x75, 0x65, 0x6e, 0x74, 0x69, 0x61, 0x6c, 0x5f, 0x33, 0x5f, 0x31, 0x2f,
  0x64, 0x65, 0x6e, 0x73, 0x65, 0x5f, 0x31, 0x30, 0x5f, 0x31, 0x2f, 0x52,
  0x65, 0x6c, 0x75, 0x3b, 0x73, 0x65, 0x71, 0x75, 0x65, 0x6e, 0x74, 0x69,
  0x61, 0x6c, 0x5f, 0x33, 0x5f, 0x31, 0x2f, 0x64, 0x65, 0x6e, 0x73, 0x65,
  0x5f, 0x31, 0x30, 0x5f, 0x31, 0x2f, 0x42, 0x69, 0x61, 0x73, 0x41, 0x64,
  0x64, 0x00, 0x00, 0x00, 0x02, 0x00, 0x00, 0x00, 0x01, 0x00, 0x00, 0x00,
  0x08, 0x00, 0x00, 0x00, 0x3a, 0xfd, 0xff, 0xff, 0x00, 0x00, 0x00, 0x01,
  0x14, 0x00, 0x00, 0x00, 0x1c, 0x00, 0x00, 0x00, 0x1c, 0x00, 0x00, 0x00,
  0x0a, 0x00, 0x00, 0x00, 0x78, 0x00, 0x00, 0x00, 0x02, 0x00, 0x00, 0x00,
  0xff, 0xff, 0xff, 0xff, 0x10, 0x00, 0x00, 0x00, 0x20, 0xfd, 0xff, 0xff,
  0x5e, 0x00, 0x00, 0x00, 0x73, 0x65, 0x71, 0x75, 0x65, 0x6e, 0x74, 0x69,
  0x61, 0x6c, 0x5f, 0x33, 0x5f, 0x31, 0x2f, 0x64, 0x65, 0x6e, 0x73, 0x65,
  0x5f, 0x39, 0x5f, 0x31, 0x2f, 0x4d, 0x61, 0x74, 0x4d, 0x75, 0x6c, 0x3b,
  0x73, 0x65, 0x71, 0x75, 0x65, 0x6e, 0x74, 0x69, 0x61, 0x6c, 0x5f, 0x33,
  0x5f, 0x31, 0x2f, 0x64, 0x65, 0x6e, 0x73, 0x65, 0x5f, 0x39, 0x5f, 0x31,
  0x2f, 0x52, 0x65, 0x6c, 0x75, 0x3b, 0x73, 0x65, 0x71, 0x75, 0x65, 0x6e,
  0x74, 0x69, 0x61, 0x6c, 0x5f, 0x33, 0x5f, 0x31, 0x2f, 0x64, 0x65, 0x6e,
  0x73, 0x65, 0x5f, 0x39, 0x5f, 0x31, 0x2f, 0x42, 0x69, 0x61, 0x73, 0x41,
  0x64, 0x64, 0x00, 0x00, 0x02, 0x00, 0x00, 0x00, 0x01, 0x00, 0x00, 0x00,
  0x10, 0x00, 0x00, 0x00, 0xd6, 0xfd, 0xff, 0xff, 0x00, 0x00, 0x00, 0x01,
  0x14, 0x00, 0x00, 0x00, 0x1c, 0x00, 0x00, 0x00, 0x1c, 0x00, 0x00, 0x00,
  0x09, 0x00, 0x00, 0x00, 0x3c, 0x00, 0x00, 0x00, 0x02, 0x00, 0x00, 0x00,
  0xff, 0xff, 0xff, 0xff, 0x0a, 0x00, 0x00, 0x00, 0xbc, 0xfd, 0xff, 0xff,
  0x22, 0x00, 0x00, 0x00, 0x73, 0x65, 0x71, 0x75, 0x65, 0x6e, 0x74, 0x69,
  0x61, 0x6c, 0x5f, 0x33, 0x5f, 0x31, 0x2f, 0x66, 0x6c, 0x61, 0x74, 0x74,
  0x65, 0x6e, 0x5f, 0x33, 0x5f, 0x31, 0x2f, 0x52, 0x65, 0x73, 0x68, 0x61,
  0x70, 0x65, 0x00, 0x00, 0x02, 0x00, 0x00, 0x00, 0x01, 0x00, 0x00, 0x00,
  0x0a, 0x00, 0x00, 0x00, 0x00, 0x00, 0x16, 0x00, 0x1c, 0x00, 0x18, 0x00,
  0x17, 0x00, 0x10, 0x00, 0x0c, 0x00, 0x08, 0x00, 0x00, 0x00, 0x00, 0x00,
  0x00, 0x00, 0x07, 0x00, 0x16, 0x00, 0x00, 0x00, 0x00, 0x00, 0x00, 0x01,
  0x14, 0x00, 0x00, 0x00, 0x14, 0x00, 0x00, 0x00, 0x08, 0x00, 0x00, 0x00,
  0x00, 0x00, 0x00, 0x02, 0x1c, 0x00, 0x00, 0x00, 0x28, 0xfe, 0xff, 0xff,
  0x0f, 0x00, 0x00, 0x00, 0x61, 0x72, 0x69, 0x74, 0x68, 0x2e, 0x63, 0x6f,
  0x6e, 0x73, 0x74, 0x61, 0x6e, 0x74, 0x36, 0x00, 0x01, 0x00, 0x00, 0x00,
  0x02, 0x00, 0x00, 0x00, 0xde, 0xfe, 0xff, 0xff, 0x00, 0x00, 0x00, 0x01,
  0x10, 0x00, 0x00, 0x00, 0x10, 0x00, 0x00, 0x00, 0x07, 0x00, 0x00, 0x00,
  0x1c, 0x00, 0x00, 0x00, 0x60, 0xfe, 0xff, 0xff, 0x0f, 0x00, 0x00, 0x00,
  0x61, 0x72, 0x69, 0x74, 0x68, 0x2e, 0x63, 0x6f, 0x6e, 0x73, 0x74, 0x61,
  0x6e, 0x74, 0x35, 0x00, 0x01, 0x00, 0x00, 0x00, 0x08, 0x00, 0x00, 0x00,
  0x16, 0xff, 0xff, 0xff, 0x00, 0x00, 0x00, 0x01, 0x10, 0x00, 0x00, 0x00,
  0x10, 0x00, 0x00, 0x00, 0x06, 0x00, 0x00, 0x00, 0x1c, 0x00, 0x00, 0x00,
  0x98, 0xfe, 0xff, 0xff, 0x0f, 0x00, 0x00, 0x00, 0x61, 0x72, 0x69, 0x74,
  0x68, 0x2e, 0x63, 0x6f, 0x6e, 0x73, 0x74, 0x61, 0x6e, 0x74, 0x34, 0x00,
  0x01, 0x00, 0x00, 0x00, 0x01, 0x00, 0x00, 0x00, 0x4e, 0xff, 0xff, 0xff,
  0x00, 0x00, 0x00, 0x01, 0x10, 0x00, 0x00, 0x00, 0x10, 0x00, 0x00, 0x00,
  0x05, 0x00, 0x00, 0x00, 0x1c, 0x00, 0x00, 0x00, 0xd0, 0xfe, 0xff, 0xff,
  0x0f, 0x00, 0x00, 0x00, 0x61, 0x72, 0x69, 0x74, 0x68, 0x2e, 0x63, 0x6f,
  0x6e, 0x73, 0x74, 0x61, 0x6e, 0x74, 0x33, 0x00, 0x01, 0x00, 0x00, 0x00,
  0x10, 0x00, 0x00, 0x00, 0x86, 0xff, 0xff, 0xff, 0x00, 0x00, 0x00, 0x01,
  0x10, 0x00, 0x00, 0x00, 0x10, 0x00, 0x00, 0x00, 0x04, 0x00, 0x00, 0x00,
  0x1c, 0x00, 0x00, 0x00, 0x08, 0xff, 0xff, 0xff, 0x0f, 0x00, 0x00, 0x00,
  0x61, 0x72, 0x69, 0x74, 0x68, 0x2e, 0x63, 0x6f, 0x6e, 0x73, 0x74, 0x61,
  0x6e, 0x74, 0x32, 0x00, 0x02, 0x00, 0x00, 0x00, 0x10, 0x00, 0x00, 0x00,
  0x0a, 0x00, 0x00, 0x00, 0xc2, 0xff, 0xff, 0xff, 0x00, 0x00, 0x00, 0x01,
  0x10, 0x00, 0x00, 0x00, 0x10, 0x00, 0x00, 0x00, 0x03, 0x00, 0x00, 0x00,
  0x1c, 0x00, 0x00, 0x00, 0x44, 0xff, 0xff, 0xff, 0x0f, 0x00, 0x00, 0x00,
  0x61, 0x72, 0x69, 0x74, 0x68, 0x2e, 0x63, 0x6f, 0x6e, 0x73, 0x74, 0x61,
  0x6e, 0x74, 0x31, 0x00, 0x02, 0x00, 0x00, 0x00, 0x08, 0x00, 0x00, 0x00,
  0x10, 0x00, 0x00, 0x00, 0x00, 0x00, 0x16, 0x00, 0x18, 0x00, 0x14, 0x00,
  0x00, 0x00, 0x10, 0x00, 0x0c, 0x00, 0x08, 0x00, 0x00, 0x00, 0x00, 0x00,
  0x00, 0x00, 0x07, 0x00, 0x16, 0x00, 0x00, 0x00, 0x00, 0x00, 0x00, 0x01,
  0x10, 0x00, 0x00, 0x00, 0x10, 0x00, 0x00, 0x00, 0x02, 0x00, 0x00, 0x00,
  0x1c, 0x00, 0x00, 0x00, 0x98, 0xff, 0xff, 0xff, 0x0e, 0x00, 0x00, 0x00,
  0x61, 0x72, 0x69, 0x74, 0x68, 0x2e, 0x63, 0x6f, 0x6e, 0x73, 0x74, 0x61,
  0x6e, 0x74, 0x00, 0x00, 0x02, 0x00, 0x00, 0x00, 0x01, 0x00, 0x00, 0x00,
  0x08, 0x00, 0x00, 0x00, 0x00, 0x00, 0x16, 0x00, 0x1c, 0x00, 0x18, 0x00,
  0x00, 0x00, 0x14, 0x00, 0x10, 0x00, 0x0c, 0x00, 0x00, 0x00, 0x00, 0x00,
  0x08, 0x00, 0x07, 0x00, 0x16, 0x00, 0x00, 0x00, 0x00, 0x00, 0x00, 0x01,
  0x14, 0x00, 0x00, 0x00, 0x24, 0x00, 0x00, 0x00, 0x24, 0x00, 0x00, 0x00,
  0x01, 0x00, 0x00, 0x00, 0x44, 0x00, 0x00, 0x00, 0x03, 0x00, 0x00, 0x00,
  0xff, 0xff, 0xff, 0xff, 0x0a, 0x00, 0x00, 0x00, 0x01, 0x00, 0x00, 0x00,
  0x04, 0x00, 0x04, 0x00, 0x04, 0x00, 0x00, 0x00, 0x21, 0x00, 0x00, 0x00,
  0x73, 0x65, 0x72, 0x76, 0x69, 0x6e, 0x67, 0x5f, 0x64, 0x65, 0x66, 0x61,
  0x75, 0x6c, 0x74, 0x5f, 0x6b, 0x65, 0x72, 0x61, 0x73, 0x5f, 0x74, 0x65,
  0x6e, 0x73, 0x6f, 0x72, 0x5f, 0x31, 0x35, 0x3a, 0x30, 0x00, 0x00, 0x00,
  0x03, 0x00, 0x00, 0x00, 0x01, 0x00, 0x00, 0x00, 0x0a, 0x00, 0x00, 0x00,
  0x01, 0x00, 0x00, 0x00, 0x02, 0x00, 0x00, 0x00, 0x20, 0x00, 0x00, 0x00,
  0x04, 0x00, 0x00, 0x00, 0xf4, 0xff, 0xff, 0xff, 0x09, 0x00, 0x00, 0x00,
  0x00, 0x00, 0x00, 0x09, 0x0c, 0x00, 0x0c, 0x00, 0x0b, 0x00, 0x00, 0x00,
  0x00, 0x00, 0x04, 0x00, 0x0c, 0x00, 0x00, 0x00, 0x16, 0x00, 0x00, 0x00,
  0x00, 0x00, 0x00, 0x16
};
unsigned int humidity_model_tflite_len = 3424;
