unsigned char temperature_model_tflite[] = {
  0x1c, 0x00, 0x00, 0x00, 0x54, 0x46, 0x4c, 0x33, 0x14, 0x00, 0x20, 0x00,
  0x1c, 0x00, 0x18, 0x00, 0x14, 0x00, 0x10, 0x00, 0x0c, 0x00, 0x00, 0x00,
  0x08, 0x00, 0x04, 0x00, 0x14, 0x00, 0x00, 0x00, 0x1c, 0x00, 0x00, 0x00,
  0x98, 0x00, 0x00, 0x00, 0xf0, 0x00, 0x00, 0x00, 0x34, 0x07, 0x00, 0x00,
  0x44, 0x07, 0x00, 0x00, 0x00, 0x0d, 0x00, 0x00, 0x03, 0x00, 0x00, 0x00,
  0x01, 0x00, 0x00, 0x00, 0x10, 0x00, 0x00, 0x00, 0x00, 0x00, 0x0a, 0x00,
  0x10, 0x00, 0x0c, 0x00, 0x08, 0x00, 0x04, 0x00, 0x0a, 0x00, 0x00, 0x00,
  0x0c, 0x00, 0x00, 0x00, 0x1c, 0x00, 0x00, 0x00, 0x3c, 0x00, 0x00, 0x00,
  0x0f, 0x00, 0x00, 0x00, 0x73, 0x65, 0x72, 0x76, 0x69, 0x6e, 0x67, 0x5f,
  0x64, 0x65, 0x66, 0x61, 0x75, 0x6c, 0x74, 0x00, 0x01, 0x00, 0x00, 0x00,
  0x04, 0x00, 0x00, 0x00, 0x90, 0xff, 0xff, 0xff, 0x0b, 0x00, 0x00, 0x00,
  0x04, 0x00, 0x00, 0x00, 0x08, 0x00, 0x00, 0x00, 0x6f, 0x75, 0x74, 0x70,
  0x75, 0x74, 0x5f, 0x30, 0x00, 0x00, 0x00, 0x00, 0x01, 0x00, 0x00, 0x00,
  0x04, 0x00, 0x00, 0x00, 0x7a, 0xf9, 0xff, 0xff, 0x04, 0x00, 0x00, 0x00,
  0x0f, 0x00, 0x00, 0x00, 0x6b, 0x65, 0x72, 0x61, 0x73, 0x5f, 0x74, 0x65,
  0x6e, 0x73, 0x6f, 0x72, 0x5f, 0x32, 0x30, 0x00, 0x02, 0x00, 0x00, 0x00,
  0x34, 0x00, 0x00, 0x00, 0x04, 0x00, 0x00, 0x00, 0xdc, 0xff, 0xff, 0xff,
  0x0e, 0x00, 0x00, 0x00, 0x04, 0x00, 0x00, 0x00, 0x13, 0x00, 0x00, 0x00,
  0x43, 0x4f, 0x4e, 0x56, 0x45, 0x52, 0x53, 0x49, 0x4f, 0x4e, 0x5f, 0x4d,
  0x45, 0x54, 0x41, 0x44, 0x41, 0x54, 0x41, 0x00, 0x08, 0x00, 0x0c, 0x00,
  0x08, 0x00, 0x04, 0x00, 0x08, 0x00, 0x00, 0x00, 0x0d, 0x00, 0x00, 0x00,
  0x04, 0x00, 0x00, 0x00, 0x13, 0x00, 0x00, 0x00, 0x6d, 0x69, 0x6e, 0x5f,
  0x72, 0x75, 0x6e, 0x74, 0x69, 0x6d, 0x65, 0x5f, 0x76, 0x65, 0x72, 0x73,
  0x69, 0x6f, 0x6e, 0x00, 0x0f, 0x00, 0x00, 0x00, 0x40, 0x06, 0x00, 0x00,
  0x38, 0x06, 0x00, 0x00, 0x08, 0x06, 0x00, 0x00, 0xf0, 0x03, 0x00, 0x00,
  0x60, 0x01, 0x00, 0x00, 0x4c, 0x01, 0x00, 0x00, 0x1c, 0x01, 0x00, 0x00,
  0xcc, 0x00, 0x00, 0x00, 0xb4, 0x00, 0x00, 0x00, 0xac, 0x00, 0x00, 0x00,
  0xa4, 0x00, 0x00, 0x00, 0x9c, 0x00, 0x00, 0x00, 0x94, 0x00, 0x00, 0x00,
  0x74, 0x00, 0x00, 0x00, 0x04, 0x00, 0x00, 0x00, 0x32, 0xfa, 0xff, 0xff,
  0x04, 0x00, 0x00, 0x00, 0x60, 0x00, 0x00, 0x00, 0x10, 0x00, 0x00, 0x00,
  0x00, 0x00, 0x00, 0x00, 0x08, 0x00, 0x0e, 0x00, 0x08, 0x00, 0x04, 0x00,
  0x08, 0x00, 0x00, 0x00, 0x10, 0x00, 0x00, 0x00, 0x24, 0x00, 0x00, 0x00,
  0x00, 0x00, 0x06, 0x00, 0x08, 0x00, 0x04, 0x00, 0x06, 0x00, 0x00, 0x00,
  0x04, 0x00, 0x00, 0x00, 0x00, 0x00, 0x00, 0x00, 0x0c, 0x00, 0x18, 0x00,
  0x14, 0x00, 0x10, 0x00, 0x0c, 0x00, 0x04, 0x00, 0x0c, 0x00, 0x00, 0x00,
  0x77, 0x65, 0xa6, 0x74, 0x12, 0x20, 0x87, 0x8f, 0x02, 0x00, 0x00, 0x00,
  0x02, 0x00, 0x00, 0x00, 0x04, 0x00, 0x00, 0x00, 0x06, 0x00, 0x00, 0x00,
  0x32, 0x2e, 0x31, 0x38, 0x2e, 0x30, 0x00, 0x00, 0x9e, 0xfa, 0xff, 0xff,
  0x04, 0x00, 0x00, 0x00, 0x10, 0x00, 0x00, 0x00, 0x31, 0x2e, 0x35, 0x2e,
  0x30, 0x00, 0x00, 0x00, 0x00, 0x00, 0x00, 0x00, 0x00, 0x00, 0x00, 0x00,
  0xec, 0xf4, 0xff, 0xff, 0xf0, 0xf4, 0xff, 0xff, 0xf4, 0xf4, 0xff, 0xff,
  0xf8, 0xf4, 0xff, 0xff, 0xca, 0xfa, 0xff, 0xff, 0x04, 0x00, 0x00, 0x00,
  0x08, 0x00, 0x00, 0x00, 0xff, 0xff, 0xff, 0xff, 0x0a, 0x00, 0x00, 0x00,
  0xde, 0xfa, 0xff, 0xff, 0x04, 0x00, 0x00, 0x00, 0x40, 0x00, 0x00, 0x00,
  0xaf, 0xaf, 0x31, 0xbd, 0x28, 0x64, 0x47, 0xbd, 0x00, 0x00, 0x00, 0x00,
  0x78, 0x2d, 0x9d, 0xbd, 0x00, 0x00, 0x00, 0x00, 0x00, 0x00, 0x00, 0x00,
  0x00, 0x00, 0x00, 0x00, 0x28, 0xe2, 0x9b, 0x3d, 0x00, 0x00, 0x00, 0x00,
  0xb2, 0x19, 0xb5, 0x3d, 0x00, 0x00, 0x00, 0x00, 0x00, 0x00, 0x00, 0x00,
  0x35, 0x38, 0xb0, 0x3d, 0x00, 0x00, 0x00, 0x00, 0x00, 0x00, 0x00, 0x00,
  0x40, 0xa3, 0x71, 0xbc, 0x2a, 0xfb, 0xff, 0xff, 0x04, 0x00, 0x00, 0x00,
  0x20, 0x00, 0x00, 0x00, 0x00, 0x00, 0x00, 0x00, 0x00, 0x00, 0x00, 0x00,
  0x00, 0x00, 0x00, 0x00, 0x7c, 0x2d, 0x8d, 0x3d, 0x00, 0x00, 0x00, 0x00,
  0x00, 0x00, 0x00, 0x00, 0xd4, 0xbc, 0x95, 0x3d, 0x00, 0x00, 0x00, 0x00,
  0x56, 0xfb, 0xff, 0xff, 0x04, 0x00, 0x00, 0x00, 0x04, 0x00, 0x00, 0x00,
  0x38, 0xfc, 0x89, 0x3d, 0x66, 0xfb, 0xff, 0xff, 0x04, 0x00, 0x00, 0x00,
  0x80, 0x02, 0x00, 0x00, 0x0f, 0xf9, 0xba, 0xbd, 0x0f, 0x8f, 0x87, 0x3e,
  0xdb, 0x3d, 0x0d, 0xbe, 0x3b, 0x33, 0x47, 0xbe, 0xe9, 0x25, 0x34, 0x3e,
  0x7b, 0x38, 0x4b, 0x3e, 0x87, 0x89, 0xf2, 0xbe, 0x5e, 0xf7, 0x01, 0x3d,
  0xe6, 0xd1, 0xd8, 0x3e, 0x87, 0x0a, 0xa0, 0xbe, 0x7e, 0x57, 0x3e, 0x3d,
  0xff, 0x79, 0x9e, 0x3e, 0x90, 0x9a, 0xb7, 0x3d, 0x35, 0x93, 0x7f, 0x3e,
  0xa3, 0xe4, 0x18, 0xbe, 0xcc, 0xf7, 0x2a, 0xbe, 0xab, 0x08, 0xd2, 0xbe,
  0xd8, 0xba, 0x7a, 0xbe, 0x5e, 0xee, 0x29, 0xbe, 0x8c, 0xc5, 0xa9, 0x3e,
  0x6c, 0x09, 0xbc, 0xbe, 0xd8, 0x2d, 0x89, 0x3e, 0xe0, 0x8b, 0xe0, 0x3d,
  0x08, 0xaf, 0xf3, 0x3d, 0x98, 0x9f, 0xdc, 0x3d, 0x82, 0x35, 0xd0, 0xbe,
  0xc6, 0xcf, 0x62, 0xbe, 0xe0, 0x75, 0x30, 0xbc, 0xba, 0x6c, 0x30, 0xbe,
  0x48, 0xc8, 0x1a, 0xbd, 0x16, 0xc7, 0xad, 0x3e, 0x07, 0x64, 0x44, 0xbe,
  0x4e, 0x18, 0xbc, 0x3d, 0x98, 0xb7, 0x48, 0x3e, 0x84, 0xf7, 0xba, 0xbe,
  0xf5, 0x38, 0xaf, 0xbd, 0x1a, 0xe1, 0x90, 0x3e, 0xf5, 0xc0, 0x1d, 0xbe,
  0x0e, 0x05, 0xcf, 0xbe, 0xeb, 0x71, 0xa4, 0x3e, 0x0e, 0x76, 0x78, 0xbe,
  0xe0, 0x78, 0x91, 0x3e, 0x70, 0x3f, 0x54, 0xbd, 0x6a, 0x38, 0x83, 0x3e,
  0xb4, 0xa0, 0x8f, 0xbe, 0x94, 0x14, 0xa7, 0x3e, 0xc6, 0x90, 0x1b, 0xbe,
  0xe0, 0x35, 0xa8, 0xbe, 0x38, 0x2d, 0x9f, 0x3d, 0x30, 0x19, 0x9a, 0x3d,
  0x0a, 0x11, 0x87, 0x3e, 0x3e, 0x3b, 0xe3, 0xbe, 0xda, 0xa0, 0x8b, 0xbe,
  0xc8, 0xc4, 0x1a, 0xbd, 0xb2, 0x4d, 0xae, 0xbe, 0xd8, 0xf4, 0x58, 0xbd,
  0xaa, 0xff, 0x3c, 0xbe, 0x38, 0xbe, 0x98, 0x3d, 0x45, 0x5f, 0x72, 0xbe,
  0xf8, 0xc3, 0x85, 0xbe, 0x22, 0x83, 0xf2, 0xbe, 0x78, 0xfc, 0xdd, 0xbd,
  0x20, 0x10, 0x7b, 0x3c, 0x30, 0xed, 0xd2, 0x3d, 0x72, 0xaa, 0x9c, 0x3e,
  0xa0, 0xde, 0x3b, 0xbe, 0x08, 0x50, 0x5b, 0xbe, 0x54, 0x2c, 0x26, 0xbe,
  0x10, 0x1f, 0x15, 0xbd, 0x64, 0x21, 0x03, 0xbe, 0x2d, 0xb4, 0xce, 0x3e,
  0x25, 0xd1, 0x1f, 0xbd, 0xd2, 0xb4, 0x22, 0xbd, 0x0c, 0x85, 0x68, 0x3e,
  0x57, 0xd1, 0x45, 0xbe, 0x3b, 0x02, 0xba, 0xbe, 0x5f, 0x6b, 0xd1, 0x3e,
  0x54, 0xd2, 0xff, 0x3e, 0xe2, 0xe7, 0xb3, 0x3e, 0x85, 0x64, 0x88, 0x3e,
  0x26, 0xb6, 0xde, 0x3e, 0x75, 0x78, 0x81, 0xbe, 0xaa, 0xc5, 0x16, 0xbe,
  0x5c, 0xf8, 0xe2, 0x3e, 0xd2, 0x43, 0x8d, 0x3e, 0x40, 0x42, 0x35, 0xbc,
  0x40, 0x90, 0xa0, 0xbe, 0x40, 0x44, 0xcc, 0x3c, 0xb8, 0x2e, 0xee, 0xbe,
  0x80, 0x2c, 0xea, 0xbd, 0xcb, 0xee, 0x8a, 0xbe, 0x21, 0x6a, 0x11, 0x3e,
  0xb8, 0x4a, 0xcf, 0x3e, 0xfa, 0x13, 0xc1, 0x3e, 0xb3, 0x8c, 0xf0, 0x3e,
  0x36, 0x47, 0xb4, 0xbd, 0x8b, 0x42, 0xa2, 0x3e, 0xd3, 0x46, 0x32, 0xbe,
  0x15, 0x5c, 0x74, 0x3e, 0x1e, 0x02, 0xe5, 0xbc, 0x68, 0xa6, 0xa8, 0xbe,
  0xc0, 0x71, 0x94, 0x3c, 0xb0, 0x26, 0x5f, 0xbe, 0x80, 0x74, 0x93, 0xbb,
  0x10, 0x28, 0xd9, 0x3d, 0x82, 0xf9, 0x5c, 0xbe, 0x58, 0x09, 0xb8, 0x3e,
  0xd8, 0xb9, 0xaf, 0xbd, 0x8d, 0xbf, 0x9b, 0xbe, 0x00, 0x82, 0xbb, 0xbe,
  0x50, 0x29, 0xa0, 0xbe, 0x12, 0x8d, 0xdf, 0x3e, 0xdb, 0x7d, 0xb7, 0xbe,
  0x86, 0x2f, 0xad, 0x3e, 0xb4, 0x94, 0x41, 0xbe, 0x05, 0xe6, 0xcf, 0xbe,
  0x67, 0xd0, 0xd4, 0xbe, 0x84, 0x74, 0xc9, 0xbe, 0x42, 0xea, 0x97, 0xbe,
  0x6a, 0x91, 0xba, 0x3e, 0xce, 0x1b, 0xf8, 0xbd, 0xf5, 0xba, 0x46, 0x3e,
  0x31, 0x2e, 0xe6, 0xbd, 0xf2, 0x3c, 0x60, 0xbe, 0x5b, 0x85, 0x08, 0x3f,
  0x9b, 0xbf, 0xae, 0x3e, 0xb5, 0x56, 0xb2, 0x3e, 0xcb, 0x86, 0x84, 0x3e,
  0xd5, 0x37, 0xb4, 0xbd, 0x3d, 0x4f, 0x31, 0xbd, 0x52, 0x4d, 0xb9, 0x3e,
  0x3c, 0x1f, 0x14, 0x3e, 0xe4, 0x22, 0x78, 0x3e, 0xb0, 0x64, 0x4a, 0x3d,
  0x10, 0xd5, 0x4c, 0x3e, 0x64, 0xde, 0xe4, 0xbe, 0x39, 0x2b, 0xe0, 0xbe,
  0xe8, 0x81, 0x61, 0xbe, 0xe4, 0x10, 0xec, 0xbe, 0xf8, 0xfa, 0x45, 0xbd,
  0x60, 0xb8, 0xd4, 0xbc, 0x80, 0xda, 0x84, 0x3d, 0x20, 0xb9, 0x45, 0x3d,
  0xec, 0xaa, 0xb9, 0xbe, 0xa0, 0x19, 0x51, 0x3d, 0x74, 0x51, 0x8f, 0xbe,
  0x20, 0xd4, 0xc7, 0x3e, 0xe4, 0xe1, 0x57, 0xbe, 0x7d, 0x80, 0x77, 0xbe,
  0x40, 0xc7, 0x7e, 0xbc, 0x2c, 0xe0, 0x3c, 0x3d, 0xca, 0x73, 0x31, 0x3e,
  0x21, 0xd6, 0x78, 0x3d, 0x60, 0x80, 0x8b, 0xbe, 0x08, 0x15, 0xc3, 0x3e,
  0xc9, 0x92, 0x8b, 0xbe, 0x38, 0xd8, 0xe9, 0x3e, 0x58, 0x40, 0x08, 0xbc,
  0x44, 0x4b, 0x6e, 0xbe, 0xaf, 0xf9, 0x9c, 0x3e, 0xf2, 0xfd, 0xff, 0xff,
  0x04, 0x00, 0x00, 0x00, 0x00, 0x02, 0x00, 0x00, 0x30, 0x7b, 0xcb, 0x3d,
  0x68, 0x95, 0x24, 0x3e, 0x4c, 0x84, 0xe7, 0xbe, 0xe4, 0xc7, 0x9b, 0x3e,
  0x90, 0x27, 0xf3, 0x3e, 0x9c, 0x83, 0xb2, 0x3e, 0x98, 0xeb, 0x13, 0x3e,
  0x78, 0xf1, 0x8c, 0xbe, 0x28, 0xd5, 0xa6, 0xbe, 0xac, 0x6e, 0x98, 0x3e,
  0x40, 0x33, 0xa1, 0x3c, 0x94, 0x1d, 0x9e, 0x3e, 0x60, 0x9c, 0xac, 0xbd,
  0xb0, 0x58, 0xbf, 0x3e, 0xb0, 0xa0, 0xe2, 0xbd, 0xa0, 0xe5, 0xe7, 0xbe,
  0xe0, 0xe6, 0x7c, 0xbd, 0x90, 0xf0, 0xcb, 0x3d, 0x00, 0x7c, 0xb0, 0x3b,
  0xb0, 0x2d, 0x9e, 0x3d, 0xa0, 0x41, 0xce, 0xbe, 0x90, 0x23, 0xff, 0xbd,
  0x20, 0xca, 0xd9, 0xbd, 0x40, 0xca, 0xb0, 0x3c, 0x7c, 0x03, 0x9d, 0x3e,
  0xc4, 0x6a, 0x95, 0xbe, 0xc8, 0x69, 0x90, 0x3e, 0x84, 0xdd, 0xab, 0x3e,
  0xe0, 0xe8, 0x6c, 0x3e, 0xa0, 0xf5, 0xf9, 0x3e, 0x28, 0x5e, 0x97, 0x3e,
  0x58, 0x71, 0x74, 0xbe, 0xb0, 0xae, 0x7a, 0x3e, 0x94, 0x79, 0xa7, 0x3e,
  0xc0, 0x82, 0xf2, 0x3e, 0xa8, 0x91, 0x3b, 0xbe, 0x18, 0xc6, 0x9f, 0x3e,
  0x50, 0xc8, 0x02, 0xbe, 0x40, 0x61, 0xf3, 0x3d, 0xe8, 0x30, 0x57, 0xbe,
  0xc8, 0x2b, 0x9d, 0xbe, 0x00, 0xce, 0x31, 0xbe, 0x38, 0xa3, 0xdb, 0xbe,
  0xb0, 0xb9, 0x03, 0xbe, 0x60, 0x80, 0xdc, 0xbd, 0x08, 0xea, 0xce, 0x3e,
  0x80, 0x70, 0xa1, 0xbc, 0x00, 0x35, 0xe0, 0x3b, 0xdd, 0x2b, 0x4e, 0xbe,
  0x13, 0x0e, 0x77, 0xbe, 0x60, 0x5a, 0xe8, 0xbe, 0x48, 0x46, 0xd0, 0xbd,
  0xa0, 0x82, 0xfb, 0xbd, 0x30, 0x3a, 0xa0, 0xbe, 0x00, 0x93, 0x10, 0xbe,
  0x10, 0xed, 0xc6, 0x3c, 0x78, 0x01, 0xd5, 0x3e, 0x87, 0xe1, 0xd1, 0x3e,
  0x80, 0xd0, 0xce, 0x3d, 0xe0, 0xed, 0x3b, 0xbe, 0xb0, 0x81, 0x87, 0x3e,
  0xb8, 0xcf, 0xf7, 0xbe, 0x3c, 0x24, 0xff, 0xbe, 0x41, 0xf9, 0xfa, 0xbd,
  0x38, 0xc0, 0x53, 0xbe, 0x50, 0x20, 0xa5, 0x3e, 0x80, 0x47, 0x40, 0x3d,
  0x7c, 0xe7, 0x83, 0xbe, 0x64, 0xe3, 0xd8, 0xbe, 0xd0, 0x4e, 0x2c, 0xbe,
  0xc0, 0xb6, 0x12, 0x3e, 0xc0, 0x74, 0xfa, 0x3c, 0x1c, 0xbc, 0xc5, 0x3e,
  0x30, 0xdd, 0xa5, 0xbd, 0xb8, 0x87, 0xf0, 0x3e, 0x84, 0xe1, 0xe7, 0x3e,
  0xc0, 0x97, 0x78, 0xbe, 0xc8, 0x18, 0x12, 0xbe, 0x08, 0xfa, 0x76, 0x3e,
  0xd0, 0xd9, 0xfd, 0x3d, 0xc0, 0xa9, 0x63, 0xbe, 0x80, 0x95, 0x0b, 0x3d,
  0x2c, 0x00, 0xd8, 0xbe, 0x30, 0x81, 0x44, 0xbe, 0x40, 0x93, 0xb8, 0x3c,
  0x0c, 0x88, 0x88, 0xbe, 0x08, 0xfe, 0x09, 0x3e, 0x80, 0xcc, 0x71, 0xbd,
  0x80, 0xd3, 0x78, 0x3e, 0xe0, 0xbe, 0xa6, 0xbd, 0x54, 0x86, 0x8a, 0x3e,
  0xb0, 0xa0, 0xd6, 0x3e, 0x38, 0xd7, 0x9b, 0xbe, 0xb8, 0xcc, 0xc9, 0x3e,
  0x90, 0x74, 0x5d, 0xbe, 0x74, 0x2c, 0xc6, 0x3e, 0xe5, 0xc0, 0xd5, 0xbe,
  0xef, 0xa9, 0xd7, 0xbe, 0x00, 0xea, 0xe0, 0x3e, 0xb8, 0xec, 0xb7, 0xbe,
  0xb8, 0x6c, 0x43, 0xbe, 0xa0, 0x1e, 0x1b, 0x3d, 0x50, 0x4b, 0x8e, 0x3e,
  0x38, 0xc2, 0x01, 0x3f, 0xf8, 0xf7, 0xf6, 0x3e, 0xd7, 0x1d, 0x6d, 0x3e,
  0x00, 0x4c, 0xa4, 0x3c, 0x88, 0x9e, 0xdc, 0x3e, 0x0f, 0x71, 0x10, 0x3f,
  0x00, 0xa4, 0x9b, 0xbb, 0x98, 0x68, 0x76, 0x3e, 0x64, 0x52, 0x68, 0x3e,
  0xfc, 0xcf, 0x9a, 0xbe, 0x90, 0xd4, 0xb0, 0xbd, 0xa4, 0x18, 0x97, 0x3e,
  0x58, 0x40, 0x02, 0xbe, 0xe0, 0x20, 0xa6, 0x3d, 0x98, 0x58, 0xe9, 0x3e,
  0xc0, 0x53, 0x66, 0x3d, 0x90, 0x5a, 0x41, 0x3e, 0x8c, 0x80, 0x9c, 0x3e,
  0xd8, 0xe1, 0xf1, 0xbe, 0xa8, 0x85, 0x53, 0x3e, 0x70, 0x9f, 0x2e, 0x3e,
  0xe0, 0xc9, 0xc9, 0xbe, 0xb8, 0xf7, 0x93, 0x3e, 0x34, 0x3d, 0xf4, 0xbe,
  0x88, 0x7d, 0x6f, 0xbe, 0x00, 0x00, 0x06, 0x00, 0x08, 0x00, 0x04, 0x00,
  0x06, 0x00, 0x00, 0x00, 0x04, 0x00, 0x00, 0x00, 0x20, 0x00, 0x00, 0x00,
  0xc8, 0xa6, 0x8c, 0x3d, 0x64, 0xcb, 0x1e, 0xbf, 0xe6, 0xe8, 0x4b, 0x3f,
  0xf9, 0xe5, 0x12, 0x3f, 0x7c, 0x80, 0x00, 0xbf, 0xc9, 0x49, 0xf9, 0xbe,
  0xa2, 0x88, 0x91, 0x3e, 0x38, 0x4f, 0xd5, 0x3e, 0x64, 0xfa, 0xff, 0xff,
  0x68, 0xfa, 0xff, 0xff, 0x0f, 0x00, 0x00, 0x00, 0x4d, 0x4c, 0x49, 0x52,
  0x20, 0x43, 0x6f, 0x6e, 0x76, 0x65, 0x72, 0x74, 0x65, 0x64, 0x2e, 0x00,
  0x01, 0x00, 0x00, 0x00, 0x14, 0x00, 0x00, 0x00, 0x00, 0x00, 0x0e, 0x00,
  0x18, 0x00, 0x14, 0x00, 0x10, 0x00, 0x0c, 0x00, 0x08, 0x00, 0x04, 0x00,
  0x0e, 0x00, 0x00, 0x00, 0x14, 0x00, 0x00, 0x00, 0x1c, 0x00, 0x00, 0x00,
  0x14, 0x01, 0x00, 0x00, 0x18, 0x01, 0x00, 0x00, 0x1c, 0x01, 0x00, 0x00,
  0x04, 0x00, 0x00, 0x00, 0x6d, 0x61, 0x69, 0x6e, 0x00, 0x00, 0x00, 0x00,
  0x04, 0x00, 0x00, 0x00, 0xd8, 0x00, 0x00, 0x00, 0x88, 0x00, 0x00, 0x00,
  0x3c, 0x00, 0x00, 0x00, 0x04, 0x00, 0x00, 0x00, 0x92, 0xff, 0xff, 0xff,
  0x14, 0x00, 0x00, 0x00, 0x00, 0x00, 0x00, 0x08, 0x10, 0x00, 0x00, 0x00,
  0x14, 0x00, 0x00, 0x00, 0x01, 0x00, 0x00, 0x00, 0xe8, 0xfa, 0xff, 0xff,
  0x01, 0x00, 0x00, 0x00, 0x0b, 0x00, 0x00, 0x00, 0x03, 0x00, 0x00, 0x00,
  0x0a, 0x00, 0x00, 0x00, 0x01, 0x00, 0x00, 0x00, 0x04, 0x00, 0x00, 0x00,
  0xc6, 0xff, 0xff, 0xff, 0x14, 0x00, 0x00, 0x00, 0x00, 0x00, 0x00, 0x08,
  0x14, 0x00, 0x00, 0x00, 0x18, 0x00, 0x00, 0x00, 0x01, 0x00, 0x00, 0x00,
  0xb6, 0xff, 0xff, 0xff, 0x00, 0x00, 0x00, 0x01, 0x01, 0x00, 0x00, 0x00,
  0x0a, 0x00, 0x00, 0x00, 0x03, 0x00, 0x00, 0x00, 0x09, 0x00, 0x00, 0x00,
  0x02, 0x00, 0x00, 0x00, 0x05, 0x00, 0x00, 0x00, 0x00, 0x00, 0x0e, 0x00,
  0x1a, 0x00, 0x14, 0x00, 0x10, 0x00, 0x0c, 0x00, 0x0b, 0x00, 0x04, 0x00,
  0x0e, 0x00, 0x00, 0x00, 0x1c, 0x00, 0x00, 0x00, 0x00, 0x00, 0x00, 0x08,
  0x1c, 0x00, 0x00, 0x00, 0x20, 0x00, 0x00, 0x00, 0x01, 0x00, 0x00, 0x00,
  0x00, 0x00, 0x06, 0x00, 0x08, 0x00, 0x07, 0x00, 0x06, 0x00, 0x00, 0x00,
  0x00, 0x00, 0x00, 0x01, 0x01, 0x00, 0x00, 0x00, 0x09, 0x00, 0x00, 0x00,
  0x03, 0x00, 0x00, 0x00, 0x08, 0x00, 0x00, 0x00, 0x03, 0x00, 0x00, 0x00,
  0x06, 0x00, 0x00, 0x00, 0x00, 0x00, 0x0a, 0x00, 0x0c, 0x00, 0x00, 0x00,
  0x08, 0x00, 0x04, 0x00, 0x0a, 0x00, 0x00, 0x00, 0x08, 0x00, 0x00, 0x00,
  0x0c, 0x00, 0x00, 0x00, 0x01, 0x00, 0x00, 0x00, 0x08, 0x00, 0x00, 0x00,
  0x02, 0x00, 0x00, 0x00, 0x00, 0x00, 0x00, 0x00, 0x07, 0x00, 0x00, 0x00,
  0x01, 0x00, 0x00, 0x00, 0x0b, 0x00, 0x00, 0x00, 0x01, 0x00, 0x00, 0x00,
  0x00, 0x00, 0x00, 0x00, 0x0c, 0x00, 0x00, 0x00, 0x08, 0x04, 0x00, 0x00,
  0xb0, 0x03, 0x00, 0x00, 0x58, 0x03, 0x00, 0x00, 0x18, 0x03, 0x00, 0x00,
  0xdc, 0x02, 0x00, 0x00, 0xa0, 0x02, 0x00, 0x00, 0x64, 0x02, 0x00, 0x00,
  0x24, 0x02, 0x00, 0x00, 0xa8, 0x01, 0x00, 0x00, 0x04, 0x01, 0x00, 0x00,
  0x60, 0x00, 0x00, 0x00, 0x04, 0x00, 0x00, 0x00, 0x3e, 0xfc, 0xff, 0xff,
  0x00, 0x00, 0x00, 0x01, 0x14, 0x00, 0x00, 0x00, 0x1c, 0x00, 0x00, 0x00,
  0x1c, 0x00, 0x00, 0x00, 0x0c, 0x00, 0x00, 0x00, 0x34, 0x00, 0x00, 0x00,
  0x02, 0x00, 0x00, 0x00, 0xff, 0xff, 0xff, 0xff, 0x01, 0x00, 0x00, 0x00,
  0x24, 0xfc, 0xff, 0xff, 0x1b, 0x00, 0x00, 0x00, 0x53, 0x74, 0x61, 0x74,
  0x65, 0x66, 0x75, 0x6c, 0x50, 0x61, 0x72, 0x74, 0x69, 0x74, 0x69, 0x6f,
  0x6e, 0x65, 0x64, 0x43, 0x61, 0x6c, 0x6c, 0x5f, 0x31, 0x3a, 0x30, 0x00,
  0x02, 0x00, 0x00, 0x00, 0x01, 0x00, 0x00, 0x00, 0x01, 0x00, 0x00, 0x00,
  0x96, 0xfc, 0xff, 0xff, 0x00, 0x00, 0x00, 0x01, 0x14, 0x00, 0x00, 0x00,
  0x1c, 0x00, 0x00, 0x00, 0x1c, 0x00, 0x00, 0x00, 0x0b, 0x00, 0x00, 0x00,
  0x7c, 0x00, 0x00, 0x00, 0x02, 0x00, 0x00, 0x00, 0xff, 0xff, 0xff, 0xff,
  0x08, 0x00, 0x00, 0x00, 0x7c, 0xfc, 0xff, 0xff, 0x61, 0x00, 0x00, 0x00,
  0x73, 0x65, 0x71, 0x75, 0x65, 0x6e, 0x74, 0x69, 0x61, 0x6c, 0x5f, 0x34,
  0x5f, 0x31, 0x2f, 0x64, 0x65, 0x6e, 0x73, 0x65, 0x5f, 0x31, 0x33, 0x5f,
  0x31, 0x2f, 0x4d, 0x61, 0x74, 0x4d, 0x75, 0x6c, 0x3b, 0x73, 0x65, 0x71,
  0x75, 0x65, 0x6e, 0x74, 0x69, 0x61, 0x6c, 0x5f, 0x34, 0x5f, 0x31, 0x2f,
  0x64, 0x65, 0x6e, 0x73, 0x65, 0x5f, 0x31, 0x33, 0x5f, 0x31, 0x2f, 0x52,
  0x65, 0x6c, 0x75, 0x3b, 0x73, 0x65, 0x71, 0x75, 0x65, 0x6e, 0x74, 0x69,
  0x61, 0x6c, 0x5f, 0x34, 0x5f, 0x31, 0x2f, 0x64, 0x65, 0x6e, 0x73, 0x65,
  0x5f, 0x31, 0x33, 0x5f, 0x31, 0x2f, 0x42, 0x69, 0x61, 0x73, 0x41, 0x64,
  0x64, 0x00, 0x00, 0x00, 0x02, 0x00, 0x00, 0x00, 0x01, 0x00, 0x00, 0x00,
  0x08, 0x00, 0x00, 0x00, 0x36, 0xfd, 0xff, 0xff, 0x00, 0x00, 0x00, 0x01,
  0x14, 0x00, 0x00, 0x00, 0x1c, 0x00, 0x00, 0x00, 0x1c, 0x00, 0x00, 0x00,
  0x0a, 0x00, 0x00, 0x00, 0x7c, 0x00, 0x00, 0x00, 0x02, 0x00, 0x00, 0x00,
  0xff, 0xff, 0xff, 0xff, 0x10, 0x00, 0x00, 0x00, 0x1c, 0xfd, 0xff, 0xff,
  0x61, 0x00, 0x00, 0x00, 0x73, 0x65, 0x71, 0x75, 0x65, 0x6e, 0x74, 0x69,
  0x61, 0x6c, 0x5f, 0x34, 0x5f, 0x31, 0x2f, 0x64, 0x65, 0x6e, 0x73, 0x65,
  0x5f, 0x31, 0x32, 0x5f, 0x31, 0x2f, 0x4d, 0x61, 0x74, 0x4d, 0x75, 0x6c,
  0x3b, 0x73, 0x65, 0x71, 0x75, 0x65, 0x6e, 0x74, 0x69, 0x61, 0x6c, 0x5f,
  0x34, 0x5f, 0x31, 0x2f, 0x64, 0x65, 0x6e, 0x73, 0x65, 0x5f, 0x31, 0x32,
  0x5f, 0x31, 0x2f, 0x52, 0x65, 0x6c, 0x75, 0x3b, 0x73, 0x65, 0x71, 0x75,
  0x65, 0x6e, 0x74, 0x69, 0x61, 0x6c, 0x5f, 0x34, 0x5f, 0x31, 0x2f, 0x64,
  0x65, 0x6e, 0x73, 0x65, 0x5f, 0x31, 0x32, 0x5f, 0x31, 0x2f, 0x42, 0x69,
  0x61, 0x73, 0x41, 0x64, 0x64, 0x00, 0x00, 0x00, 0x02, 0x00, 0x00, 0x00,
  0x01, 0x00, 0x00, 0x00, 0x10, 0x00, 0x00, 0x00, 0xd6, 0xfd, 0xff, 0xff,
  0x00, 0x00, 0x00, 0x01, 0x14, 0x00, 0x00, 0x00, 0x1c, 0x00, 0x00, 0x00,
  0x1c, 0x00, 0x00, 0x00, 0x09, 0x00, 0x00, 0x00, 0x3c, 0x00, 0x00, 0x00,
  0x02, 0x00, 0x00, 0x00, 0xff, 0xff, 0xff, 0xff, 0x0a, 0x00, 0x00, 0x00,
  0xbc, 0xfd, 0xff, 0xff, 0x22, 0x00, 0x00, 0x00, 0x73, 0x65, 0x71, 0x75,
  0x65, 0x6e, 0x74, 0x69, 0x61, 0x6c, 0x5f, 0x34, 0x5f, 0x31, 0x2f, 0x66,
  0x6c, 0x61, 0x74, 0x74, 0x65, 0x6e, 0x5f, 0x34, 0x5f, 0x31, 0x2f, 0x52,
  0x65, 0x73, 0x68, 0x61, 0x70, 0x65, 0x00, 0x00, 0x02, 0x00, 0x00, 0x00,
  0x01, 0x00, 0x00, 0x00, 0x0a, 0x00, 0x00, 0x00, 0x00, 0x00, 0x16, 0x00,
  0x1c, 0x00, 0x18, 0x00, 0x17, 0x00, 0x10, 0x00, 0x0c, 0x00, 0x08, 0x00,
  0x00, 0x00, 0x00, 0x00, 0x00, 0x00, 0x07, 0x00, 0x16, 0x00, 0x00, 0x00,
  0x00, 0x00, 0x00, 0x01, 0x14, 0x00, 0x00, 0x00, 0x14, 0x00, 0x00, 0x00,
  0x08, 0x00, 0x00, 0x00, 0x00, 0x00, 0x00, 0x02, 0x1c, 0x00, 0x00, 0x00,
  0x28, 0xfe, 0xff, 0xff, 0x0f, 0x00, 0x00, 0x00, 0x61, 0x72, 0x69, 0x74,
  0x68, 0x2e, 0x63, 0x6f, 0x6e, 0x73, 0x74, 0x61, 0x6e, 0x74, 0x36, 0x00,
  0x01, 0x00, 0x00, 0x00, 0x02, 0x00, 0x00, 0x00, 0xde, 0xfe, 0xff, 0xff,
  0x00, 0x00, 0x00, 0x01, 0x10, 0x00, 0x00, 0x00, 0x10, 0x00, 0x00, 0x00,
  0x07, 0x00, 0x00, 0x00, 0x1c, 0x00, 0x00, 0x00, 0x60, 0xfe, 0xff, 0xff,
  0x0f, 0x00, 0x00, 0x00, 0x61, 0x72, 0x69, 0x74, 0x68, 0x2e, 0x63, 0x6f,
  0x6e, 0x73, 0x74, 0x61, 0x6e, 0x74, 0x35, 0x00, 0x01, 0x00, 0x00, 0x00,
  0x10, 0x00, 0x00, 0x00, 0x16, 0xff, 0xff, 0xff, 0x00, 0x00, 0x00, 0x01,
  0x10, 0x00, 0x00, 0x00, 0x10, 0x00, 0x00, 0x00, 0x06, 0x00, 0x00, 0x00,
  0x1c, 0x00, 0x00, 0x00, 0x98, 0xfe, 0xff, 0xff, 0x0f, 0x00, 0x00, 0x00,
  0x61, 0x72, 0x69, 0x74, 0x68, 0x2e, 0x63, 0x6f, 0x6e, 0x73, 0x74, 0x61,
  0x6e, 0x74, 0x34, 0x00, 0x01, 0x00, 0x00, 0x00, 0x08, 0x00, 0x00, 0x00,
  0x4e, 0xff, 0xff, 0xff, 0x00, 0x00, 0x00, 0x01, 0x10, 0x00, 0x00, 0x00,
  0x10, 0x00, 0x00, 0x00, 0x05, 0x00, 0x00, 0x00, 0x1c, 0x00, 0x00, 0x00,
  0xd0, 0xfe, 0xff, 0xff, 0x0f, 0x00, 0x00, 0x00, 0x61, 0x72, 0x69, 0x74,
  0x68, 0x2e, 0x63, 0x6f, 0x6e, 0x73, 0x74, 0x61, 0x6e, 0x74, 0x33, 0x00,
  0x01, 0x00, 0x00, 0x00, 0x01, 0x00, 0x00, 0x00, 0x86, 0xff, 0xff, 0xff,
  0x00, 0x00, 0x00, 0x01, 0x10, 0x00, 0x00, 0x00, 0x10, 0x00, 0x00, 0x00,
  0x04, 0x00, 0x00, 0x00, 0x1c, 0x00, 0x00, 0x00, 0x08, 0xff, 0xff, 0xff,
  0x0f, 0x00, 0x00, 0x00, 0x61, 0x72, 0x69, 0x74, 0x68, 0x2e, 0x63, 0x6f,
  0x6e, 0x73, 0x74, 0x61, 0x6e, 0x74, 0x32, 0x00, 0x02, 0x00, 0x00, 0x00,
  0x10, 0x00, 0x00, 0x00, 0x0a, 0x00, 0x00, 0x00, 0xc2, 0xff, 0xff, 0xff,
  0x00, 0x00, 0x00, 0x01, 0x10, 0x00, 0x00, 0x00, 0x10, 0x00, 0x00, 0x00,
  0x03, 0x00, 0x00, 0x00, 0x1c, 0x00, 0x00, 0x00, 0x44, 0xff, 0xff, 0xff,
  0x0f, 0x00, 0x00, 0x00, 0x61, 0x72, 0x69, 0x74, 0x68, 0x2e, 0x63, 0x6f,
  0x6e, 0x73, 0x74, 0x61, 0x6e, 0x74, 0x31, 0x00, 0x02, 0x00, 0x00, 0x00,
  0x08, 0x00, 0x00, 0x00, 0x10, 0x00, 0x00, 0x00, 0x00, 0x00, 0x16, 0x00,
  0x18, 0x00, 0x14, 0x00, 0x00, 0x00, 0x10, 0x00, 0x0c, 0x00, 0x08, 0x00,
  0x00, 0x00, 0x00, 0x00, 0x00, 0x00, 0x07, 0x00, 0x16, 0x00, 0x00, 0x00,
  0x00, 0x00, 0x00, 0x01, 0x10, 0x00, 0x00, 0x00, 0x10, 0x00, 0x00, 0x00,
  0x02, 0x00, 0x00, 0x00, 0x1c, 0x00, 0x00, 0x00, 0x98, 0xff, 0xff, 0xff,
  0x0e, 0x00, 0x00, 0x00, 0x61, 0x72, 0x69, 0x74, 0x68, 0x2e, 0x63, 0x6f,
  0x6e, 0x73, 0x74, 0x61, 0x6e, 0x74, 0x00, 0x00, 0x02, 0x00, 0x00, 0x00,
  0x01, 0x00, 0x00, 0x00, 0x08, 0x00, 0x00, 0x00, 0x00, 0x00, 0x16, 0x00,
  0x1c, 0x00, 0x18, 0x00, 0x00, 0x00, 0x14, 0x00, 0x10, 0x00, 0x0c, 0x00,
  0x00, 0x00, 0x00, 0x00, 0x08, 0x00, 0x07, 0x00, 0x16, 0x00, 0x00, 0x00,
  0x00, 0x00, 0x00, 0x01, 0x14, 0x00, 0x00, 0x00, 0x24, 0x00, 0x00, 0x00,
  0x24, 0x00, 0x00, 0x00, 0x01, 0x00, 0x00, 0x00, 0x44, 0x00, 0x00, 0x00,
  0x03, 0x00, 0x00, 0x00, 0xff, 0xff, 0xff, 0xff, 0x0a, 0x00, 0x00, 0x00,
  0x01, 0x00, 0x00, 0x00, 0x04, 0x00, 0x04, 0x00, 0x04, 0x00, 0x00, 0x00,
  0x21, 0x00, 0x00, 0x00, 0x73, 0x65, 0x72, 0x76, 0x69, 0x6e, 0x67, 0x5f,
  0x64, 0x65, 0x66, 0x61, 0x75, 0x6c, 0x74, 0x5f, 0x6b, 0x65, 0x72, 0x61,
  0x73, 0x5f, 0x74, 0x65, 0x6e, 0x73, 0x6f, 0x72, 0x5f, 0x32, 0x30, 0x3a,
  0x30, 0x00, 0x00, 0x00, 0x03, 0x00, 0x00, 0x00, 0x01, 0x00, 0x00, 0x00,
  0x0a, 0x00, 0x00, 0x00, 0x01, 0x00, 0x00, 0x00, 0x02, 0x00, 0x00, 0x00,
  0x20, 0x00, 0x00, 0x00, 0x04, 0x00, 0x00, 0x00, 0xf4, 0xff, 0xff, 0xff,
  0x09, 0x00, 0x00, 0x00, 0x00, 0x00, 0x00, 0x09, 0x0c, 0x00, 0x0c, 0x00,
  0x0b, 0x00, 0x00, 0x00, 0x00, 0x00, 0x04, 0x00, 0x0c, 0x00, 0x00, 0x00,
  0x16, 0x00, 0x00, 0x00, 0x00, 0x00, 0x00, 0x16
};
unsigned int temperature_model_tflite_len = 3428;
